{
  "version": "1.0",
  "truncation": null,
  "padding": null,
  "added_tokens": [
    {
      "id": 0,
      "content": "[PAD]",
      "single_word": false,
      "lstrip": false,
      "rstrip": false,
      "normalized": false,
      "special": true
    },
    {
      "id": 100,
      "content": "[UNK]",
      "single_word": false,
      "lstrip": false,
      "rstrip": false,
      "normalized": false,
      "special": true
    },
    {
      "id": 101,
      "content": "[CLS]",
      "single_word": false,
      "lstrip": false,
      "rstrip": false,
      "normalized": false,
      "special": true
    },
    {
      "id": 102,
      "content": "[SEP]",
      "single_word": false,
      "lstrip": false,
      "rstrip": false,
      "normalized": false,
      "special": true
    },
    {
      "id": 103,
      "content": "[MASK]",
      "single_word": false,
      "lstrip": false,
      "rstrip": false,
      "normalized": false,
      "special": true
    }
  ],
  "normalizer": {
    "type": "BertNormalizer",
    "clean_text": true,
    "handle_chinese_chars": true,
    "strip_accents": null,
    "lowercase": false
  },
  "pre_tokenizer": {
    "type": "BertPreTokenizer"
  },
  "post_processor": {
    "type": "TemplateProcessing",
    "single": [
      {
        "SpecialToken": {
          "id": "[CLS]",
          "type_id": 0
        }
      },
      {
        "Sequence": {
          "id": "A",
          "type_id": 0
        }
      },
      {
        "SpecialToken": {
          "id": "[SEP]",
          "type_id": 0
        }
      }
    ],
    "pair": [
      {
        "SpecialToken": {
          "id": "[CLS]",
          "type_id": 0
        }
      },
      {
        "Sequence": {
          "id": "A",
          "type_id": 0
        }
      },
      {
        "SpecialToken": {
          "id": "[SEP]",
          "type_id": 0
        }
      },
      {
        "Sequence": {
          "id": "B",
          "type_id": 1
        }
      },
      {
        "SpecialToken": {
          "id": "[SEP]",
          "type_id": 1
        }
      }
    ],
    "special_tokens": {
      "[CLS]": {
        "id": "[CLS]",
        "ids": [
          101
        ],
        "tokens": [
          "[CLS]"
        ]
      },
      "[SEP]": {
        "id": "[SEP]",
        "ids": [
          102
        ],
        "tokens": [
          "[SEP]"
        ]
      }
    }
  },
  "decoder": {
    "type": "WordPiece",
    "prefix": "##",
    "cleanup": true
  },
  "model": {
    "type": "WordPiece",
    "unk_token": "[UNK]",
    "continuing_subword_prefix": "##",
    "max_input_chars_per_word": 100,
    "vocab": {
      "[PAD]": 0,
      "[unused1]": 1,
      "[unused2]": 2,
      "[unused3]": 3,
      "[unused4]": 4,
      "[unused5]": 5,
      "[unused6]": 6,
      "[unused7]": 7,
      "[unused8]": 8,
      "[unused9]": 9,
      "[unused10]": 10,
      "[unused11]": 11,
      "[unused12]": 12,
      "[unused13]": 13,
      "[unused14]": 14,
      "[unused15]": 15,
      "[unused16]": 16,
      "[unused17]": 17,
      "[unused18]": 18,
      "[unused19]": 19,
      "[unused20]": 20,
      "[unused21]": 21,
      "[unused22]": 22,
      "[unused23]": 23,
      "[unused24]": 24,
      "[unused25]": 25,
      "[unused26]": 26,
      "[unused27]": 27,
      "[unused28]": 28,
      "[unused29]": 29,
      "[unused30]": 30,
      "[unused31]": 31,
      "[unused32]": 32,
      "[unused33]": 33,
      "[unused34]": 34,
      "[unused35]": 35,
      "[unused36]": 36,
      "[unused37]": 37,
      "[unused38]": 38,
      "[unused39]": 39,
      "[unused40]": 40,
      "[unused41]": 41,
      "[unused42]": 42,
      "[unused43]": 43,
      "[unused44]": 44,
      "[unused45]": 45,
      "[unused46]": 46,
      "[unused47]": 47,
      "[unused48]": 48,
      "[unused49]": 49,
      "[unused50]": 50,
      "[unused51]": 51,
      "[unused52]": 52,
      "[unused53]": 53,
      "[unused54]": 54,
      "[unused55]": 55,
      "[unused56]": 56,
      "[unused57]": 57,
      "[unused58]": 58,
      "[unused59]": 59,
      "[unused60]": 60,
      "[unused61]": 61,
      "[unused62]": 62,
      "[unused63]": 63,
      "[unused64]": 64,
      "[unused65]": 65,
      "[unused66]": 66,
      "[unused67]": 67,
      "[unused68]": 68,
      "[unused69]": 69,
      "[unused70]": 70,
      "[unused71]": 71,
      "[unused72]": 72,
      "[unused73]": 73,
      "[unused74]": 74,
      "[unused75]": 75,
      "[unused76]": 76,
      "[unused77]": 77,
      "[unused78]": 78,
      "[unused79]": 79,
      "[unused80]": 80,
      "[unused81]": 81,
      "[unused82]": 82,
      "[unused83]": 83,
      "[unused84]": 84,
      "[unused85]": 85,
      "[unused86]": 86,
      "[unused87]": 87,
      "[unused88]": 88,
      "[unused89]": 89,
      "[unused90]": 90,
      "[unused91]": 91,
      "[unused92]": 92,
      "[unused93]": 93,
      "[unused94]": 94,
      "[unused95]": 95,
      "[unused96]": 96,
      "[unused97]": 97,
      "[unused98]": 98,
      "[unused99]": 99,
      "[UNK]": 100,
      "[CLS]": 101,
      "[SEP]": 102,
      "[MASK]": 103,
      "<S>": 104,
      "<T>": 105,
      "!": 106,
      "\"": 107,
      "#": 108,
      "$": 109,
      "%": 110,
      "&": 111,
      "'": 112,
      "(": 113,
      ")": 114,
      "*": 115,
      "+": 116,
      ",": 117,
      "-": 118,
      ".": 119,
      "/": 120,
      "0": 121,
      "1": 122,
      "2": 123,
      "3": 124,
      "4": 125,
      "5": 126,
      "6": 127,
      "7": 128,
      "8": 129,
      "9": 130,
      ":": 131,
      ";": 132,
      "<": 133,
      "=": 134,
      ">": 135,
      "?": 136,
      "@": 137,
      "A": 138,
      "B": 139,
      "C": 140,
      "D": 141,
      "E": 142,
      "F": 143,
      "G": 144,
      "H": 145,
      "I": 146,
      "J": 147,
      "K": 148,
      "L": 149,
      "M": 150,
      "N": 151,
      "O": 152,
      "P": 153,
      "Q": 154,
      "R": 155,
      "S": 156,
      "T": 157,
      "U": 158,
      "V": 159,
      "W": 160,
      "X": 161,
      "Y": 162,
      "Z": 163,
      "[": 164,
      "\\": 165,
      "]": 166,
      "^": 167,
      "_": 168,
      "a": 169,
      "b": 170,
      "c": 171,
      "d": 172,
      "e": 173,
      "f": 174,
      "g": 175,
      "h": 176,
      "i": 177,
      "j": 178,
      "k": 179,
      "l": 180,
      "m": 181,
      "n": 182,
      "o": 183,
      "p": 184,
      "q": 185,
      "r": 186,
      "s": 187,
      "t": 188,
      "u": 189,
      "v": 190,
      "w": 191,
      "x": 192,
      "y": 193,
      "z": 194,
      "{": 195,
      "|": 196,
      "}": 197,
      "~": 198,
      "¡": 199,
      "¢": 200,
      "£": 201,
      "¥": 202,
      "¦": 203,
      "§": 204,
      "¨": 205,
      "©": 206,
      "ª": 207,
      "«": 208,
      "¬": 209,
      "®": 210,
      "°": 211,
      "±": 212,
      "²": 213,
      "³": 214,
      "µ": 215,
      "¶": 216,
      "·": 217,
      "¹": 218,
      "º": 219,
      "»": 220,
      "¼": 221,
      "½": 222,
      "¾": 223,
      "¿": 224,
      "À": 225,
      "Á": 226,
      "Â": 227,
      "Ã": 228,
      "Ä": 229,
      "Å": 230,
      "Æ": 231,
      "Ç": 232,
      "È": 233,
      "É": 234,
      "Ê": 235,
      "Ë": 236,
      "Ì": 237,
      "Í": 238,
      "Î": 239,
      "Ð": 240,
      "Ñ": 241,
      "Ò": 242,
      "Ó": 243,
      "Ô": 244,
      "Õ": 245,
      "Ö": 246,
      "×": 247,
      "Ø": 248,
      "Ú": 249,
      "Ü": 250,
      "Ý": 251,
      "Þ": 252,
      "ß": 253,
      "à": 254,
      "á": 255,
      "â": 256,
      "ã": 257,
      "ä": 258,
      "å": 259,
      "æ": 260,
      "ç": 261,
      "è": 262,
      "é": 263,
      "ê": 264,
      "ë": 265,
      "ì": 266,
      "í": 267,
      "î": 268,
      "ï": 269,
      "ð": 270,
      "ñ": 271,
      "ò": 272,
      "ó": 273,
      "ô": 274,
      "õ": 275,
      "ö": 276,
      "÷": 277,
      "ø": 278,
      "ù": 279,
      "ú": 280,
      "û": 281,
      "ü": 282,
      "ý": 283,
      "þ": 284,
      "ÿ": 285,
      "Ā": 286,
      "ā": 287,
      "Ă": 288,
      "ă": 289,
      "Ą": 290,
      "ą": 291,
      "Ć": 292,
      "ć": 293,
      "Č": 294,
      "č": 295,
      "Ď": 296,
      "ď": 297,
      "Đ": 298,
      "đ": 299,
      "Ē": 300,
      "ē": 301,
      "Ĕ": 302,
      "ĕ": 303,
      "Ė": 304,
      "ė": 305,
      "ę": 306,
      "ě": 307,
      "Ğ": 308,
      "ğ": 309,
      "ġ": 310,
      "Ģ": 311,
      "ģ": 312,
      "Ħ": 313,
      "ħ": 314,
      "ĩ": 315,
      "Ī": 316,
      "ī": 317,
      "Į": 318,
      "į": 319,
      "İ": 320,
      "ı": 321,
      "Ķ": 322,
      "ķ": 323,
      "ĺ": 324,
      "Ļ": 325,
      "ļ": 326,
      "Ľ": 327,
      "ľ": 328,
      "Ł": 329,
      "ł": 330,
      "ń": 331,
      "Ņ": 332,
      "ņ": 333,
      "ň": 334,
      "ŉ": 335,
      "ŋ": 336,
      "Ō": 337,
      "ō": 338,
      "ŏ": 339,
      "Ő": 340,
      "ő": 341,
      "Œ": 342,
      "œ": 343,
      "ŕ": 344,
      "Ř": 345,
      "ř": 346,
      "Ś": 347,
      "ś": 348,
      "Ş": 349,
      "ş": 350,
      "Š": 351,
      "š": 352,
      "Ţ": 353,
      "ţ": 354,
      "Ť": 355,
      "ť": 356,
      "ũ": 357,
      "Ū": 358,
      "ū": 359,
      "ŭ": 360,
      "ů": 361,
      "Ű": 362,
      "ű": 363,
      "ų": 364,
      "ŵ": 365,
      "ŷ": 366,
      "Ź": 367,
      "ź": 368,
      "Ż": 369,
      "ż": 370,
      "Ž": 371,
      "ž": 372,
      "Ə": 373,
      "ƒ": 374,
      "ơ": 375,
      "Ư": 376,
      "ư": 377,
      "ǎ": 378,
      "ǐ": 379,
      "ǔ": 380,
      "ǫ": 381,
      "ǹ": 382,
      "Ș": 383,
      "ș": 384,
      "Ț": 385,
      "ț": 386,
      "ɐ": 387,
      "ɑ": 388,
      "ɔ": 389,
      "ɕ": 390,
      "ə": 391,
      "ɛ": 392,
      "ɡ": 393,
      "ɣ": 394,
      "ɨ": 395,
      "ɪ": 396,
      "ɲ": 397,
      "ɾ": 398,
      "ʁ": 399,
      "ʃ": 400,
      "ʊ": 401,
      "ʎ": 402,
      "ʒ": 403,
      "ʔ": 404,
      "ʙ": 405,
      "ʰ": 406,
      "ʲ": 407,
      "ʳ": 408,
      "ʷ": 409,
      "ʸ": 410,
      "ʻ": 411,
      "ʼ": 412,
      "ʾ": 413,
      "ʿ": 414,
      "ˈ": 415,
      "ː": 416,
      "ˡ": 417,
      "ˢ": 418,
      "̀": 419,
      "́": 420,
      "̃": 421,
      "̄": 422,
      "̍": 423,
      "̥": 424,
      "̧": 425,
      "̲": 426,
      "͡": 427,
      "΄": 428,
      "Ά": 429,
      "Έ": 430,
      "Ή": 431,
      "Ί": 432,
      "Ό": 433,
      "Ύ": 434,
      "Ώ": 435,
      "ΐ": 436,
      "Α": 437,
      "Β": 438,
      "Γ": 439,
      "Δ": 440,
      "Ε": 441,
      "Ζ": 442,
      "Η": 443,
      "Θ": 444,
      "Ι": 445,
      "Κ": 446,
      "Λ": 447,
      "Μ": 448,
      "Ν": 449,
      "Ξ": 450,
      "Ο": 451,
      "Π": 452,
      "Ρ": 453,
      "Σ": 454,
      "Τ": 455,
      "Υ": 456,
      "Φ": 457,
      "Χ": 458,
      "Ψ": 459,
      "Ω": 460,
      "ά": 461,
      "έ": 462,
      "ή": 463,
      "ί": 464,
      "α": 465,
      "β": 466,
      "γ": 467,
      "δ": 468,
      "ε": 469,
      "ζ": 470,
      "η": 471,
      "θ": 472,
      "ι": 473,
      "κ": 474,
      "λ": 475,
      "μ": 476,
      "ν": 477,
      "ξ": 478,
      "ο": 479,
      "π": 480,
      "ρ": 481,
      "ς": 482,
      "σ": 483,
      "τ": 484,
      "υ": 485,
      "φ": 486,
      "χ": 487,
      "ψ": 488,
      "ω": 489,
      "ϊ": 490,
      "ϋ": 491,
      "ό": 492,
      "ύ": 493,
      "ώ": 494,
      "Ё": 495,
      "Ђ": 496,
      "Ѓ": 497,
      "Є": 498,
      "Ѕ": 499,
      "І": 500,
      "Ї": 501,
      "Ј": 502,
      "Љ": 503,
      "Њ": 504,
      "Ћ": 505,
      "Ќ": 506,
      "Ў": 507,
      "Џ": 508,
      "А": 509,
      "Б": 510,
      "В": 511,
      "Г": 512,
      "Д": 513,
      "Е": 514,
      "Ж": 515,
      "З": 516,
      "И": 517,
      "Й": 518,
      "К": 519,
      "Л": 520,
      "М": 521,
      "Н": 522,
      "О": 523,
      "П": 524,
      "Р": 525,
      "С": 526,
      "Т": 527,
      "У": 528,
      "Ф": 529,
      "Х": 530,
      "Ц": 531,
      "Ч": 532,
      "Ш": 533,
      "Щ": 534,
      "Ъ": 535,
      "Ы": 536,
      "Ь": 537,
      "Э": 538,
      "Ю": 539,
      "Я": 540,
      "а": 541,
      "б": 542,
      "в": 543,
      "г": 544,
      "д": 545,
      "е": 546,
      "ж": 547,
      "з": 548,
      "и": 549,
      "й": 550,
      "к": 551,
      "л": 552,
      "м": 553,
      "н": 554,
      "о": 555,
      "п": 556,
      "р": 557,
      "с": 558,
      "т": 559,
      "у": 560,
      "ф": 561,
      "х": 562,
      "ц": 563,
      "ч": 564,
      "ш": 565,
      "щ": 566,
      "ъ": 567,
      "ы": 568,
      "ь": 569,
      "э": 570,
      "ю": 571,
      "я": 572,
      "ѐ": 573,
      "ё": 574,
      "ђ": 575,
      "ѓ": 576,
      "є": 577,
      "ѕ": 578,
      "і": 579,
      "ї": 580,
      "ј": 581,
      "љ": 582,
      "њ": 583,
      "ћ": 584,
      "ќ": 585,
      "ѝ": 586,
      "ў": 587,
      "џ": 588,
      "ѣ": 589,
      "Ґ": 590,
      "ґ": 591,
      "Ғ": 592,
      "ғ": 593,
      "Җ": 594,
      "җ": 595,
      "Ҙ": 596,
      "ҙ": 597,
      "Қ": 598,
      "қ": 599,
      "Ҡ": 600,
      "ҡ": 601,
      "ң": 602,
      "ҫ": 603,
      "Ү": 604,
      "ү": 605,
      "Ұ": 606,
      "ұ": 607,
      "Ҳ": 608,
      "ҳ": 609,
      "Ҷ": 610,
      "ҷ": 611,
      "Һ": 612,
      "һ": 613,
      "Ӏ": 614,
      "ӑ": 615,
      "ӗ": 616,
      "Ә": 617,
      "ә": 618,
      "ӣ": 619,
      "Ө": 620,
      "ө": 621,
      "Ӯ": 622,
      "ӯ": 623,
      "ӳ": 624,
      "Ա": 625,
      "Բ": 626,
      "Գ": 627,
      "Դ": 628,
      "Ե": 629,
      "Զ": 630,
      "Է": 631,
      "Ը": 632,
      "Թ": 633,
      "Ժ": 634,
      "Ի": 635,
      "Լ": 636,
      "Խ": 637,
      "Ծ": 638,
      "Կ": 639,
      "Հ": 640,
      "Ձ": 641,
      "Ղ": 642,
      "Ճ": 643,
      "Մ": 644,
      "Յ": 645,
      "Ն": 646,
      "Շ": 647,
      "Ո": 648,
      "Չ": 649,
      "Պ": 650,
      "Ջ": 651,
      "Ռ": 652,
      "Ս": 653,
      "Վ": 654,
      "Տ": 655,
      "Ր": 656,
      "Ց": 657,
      "Ւ": 658,
      "Փ": 659,
      "Ք": 660,
      "Օ": 661,
      "Ֆ": 662,
      "՚": 663,
      "՛": 664,
      "՜": 665,
      "՝": 666,
      "՞": 667,
      "ա": 668,
      "բ": 669,
      "գ": 670,
      "դ": 671,
      "ե": 672,
      "զ": 673,
      "է": 674,
      "ը": 675,
      "թ": 676,
      "ժ": 677,
      "ի": 678,
      "լ": 679,
      "խ": 680,
      "ծ": 681,
      "կ": 682,
      "հ": 683,
      "ձ": 684,
      "ղ": 685,
      "ճ": 686,
      "մ": 687,
      "յ": 688,
      "ն": 689,
      "շ": 690,
      "ո": 691,
      "չ": 692,
      "պ": 693,
      "ջ": 694,
      "ռ": 695,
      "ս": 696,
      "վ": 697,
      "տ": 698,
      "ր": 699,
      "ց": 700,
      "ւ": 701,
      "փ": 702,
      "ք": 703,
      "օ": 704,
      "ֆ": 705,
      "և": 706,
      "։": 707,
      "֊": 708,
      "ְ": 709,
      "ֱ": 710,
      "ֲ": 711,
      "ִ": 712,
      "ֵ": 713,
      "ֶ": 714,
      "ַ": 715,
      "ָ": 716,
      "ֹ": 717,
      "ּ": 718,
      "־": 719,
      "ׁ": 720,
      "ׂ": 721,
      "׃": 722,
      "א": 723,
      "ב": 724,
      "ג": 725,
      "ד": 726,
      "ה": 727,
      "ו": 728,
      "ז": 729,
      "ח": 730,
      "ט": 731,
      "י": 732,
      "ך": 733,
      "כ": 734,
      "ל": 735,
      "ם": 736,
      "מ": 737,
      "ן": 738,
      "נ": 739,
      "ס": 740,
      "ע": 741,
      "ף": 742,
      "פ": 743,
      "ץ": 744,
      "צ": 745,
      "ק": 746,
      "ר": 747,
      "ש": 748,
      "ת": 749,
      "׳": 750,
      "״": 751,
      "،": 752,
      "؍": 753,
      "ؒ": 754,
      "؛": 755,
      "؟": 756,
      "ء": 757,
      "آ": 758,
      "أ": 759,
      "ؤ": 760,
      "إ": 761,
      "ئ": 762,
      "ا": 763,
      "ب": 764,
      "ة": 765,
      "ت": 766,
      "ث": 767,
      "ج": 768,
      "ح": 769,
      "خ": 770,
      "د": 771,
      "ذ": 772,
      "ر": 773,
      "ز": 774,
      "س": 775,
      "ش": 776,
      "ص": 777,
      "ض": 778,
      "ط": 779,
      "ظ": 780,
      "ع": 781,
      "غ": 782,
      "ـ": 783,
      "ف": 784,
      "ق": 785,
      "ك": 786,
      "ل": 787,
      "م": 788,
      "ن": 789,
      "ه": 790,
      "و": 791,
      "ى": 792,
      "ي": 793,
      "ً": 794,
      "ٌ": 795,
      "ٍ": 796,
      "َ": 797,
      "ُ": 798,
      "ِ": 799,
      "ّ": 800,
      "ْ": 801,
      "ٔ": 802,
      "ٛ": 803,
      "٠": 804,
      "١": 805,
      "٢": 806,
      "٣": 807,
      "٤": 808,
      "٥": 809,
      "٩": 810,
      "٪": 811,
      "٫": 812,
      "٬": 813,
      "٭": 814,
      "ٰ": 815,
      "ٹ": 816,
      "پ": 817,
      "چ": 818,
      "ڈ": 819,
      "ڑ": 820,
      "ژ": 821,
      "ڤ": 822,
      "ک": 823,
      "ڭ": 824,
      "گ": 825,
      "ں": 826,
      "ھ": 827,
      "ۀ": 828,
      "ہ": 829,
      "ۂ": 830,
      "ۃ": 831,
      "ۆ": 832,
      "ۇ": 833,
      "ی": 834,
      "ے": 835,
      "ۓ": 836,
      "۔": 837,
      "۰": 838,
      "۱": 839,
      "۲": 840,
      "۳": 841,
      "۴": 842,
      "۵": 843,
      "۶": 844,
      "۷": 845,
      "۸": 846,
      "۹": 847,
      "ँ": 848,
      "ं": 849,
      "ः": 850,
      "अ": 851,
      "आ": 852,
      "इ": 853,
      "ई": 854,
      "उ": 855,
      "ऊ": 856,
      "ऋ": 857,
      "ऍ": 858,
      "ऎ": 859,
      "ए": 860,
      "ऐ": 861,
      "ऑ": 862,
      "ओ": 863,
      "औ": 864,
      "क": 865,
      "ख": 866,
      "ग": 867,
      "घ": 868,
      "ङ": 869,
      "च": 870,
      "छ": 871,
      "ज": 872,
      "झ": 873,
      "ञ": 874,
      "ट": 875,
      "ठ": 876,
      "ड": 877,
      "ढ": 878,
      "ण": 879,
      "त": 880,
      "थ": 881,
      "द": 882,
      "ध": 883,
      "न": 884,
      "प": 885,
      "फ": 886,
      "ब": 887,
      "भ": 888,
      "म": 889,
      "य": 890,
      "र": 891,
      "ऱ": 892,
      "ल": 893,
      "ळ": 894,
      "व": 895,
      "श": 896,
      "ष": 897,
      "स": 898,
      "ह": 899,
      "़": 900,
      "ऽ": 901,
      "ा": 902,
      "ि": 903,
      "ी": 904,
      "ु": 905,
      "ू": 906,
      "ृ": 907,
      "ॄ": 908,
      "ॅ": 909,
      "ॆ": 910,
      "े": 911,
      "ै": 912,
      "ॉ": 913,
      "ो": 914,
      "ौ": 915,
      "्": 916,
      "ॐ": 917,
      "॓": 918,
      "ॠ": 919,
      "।": 920,
      "॥": 921,
      "०": 922,
      "१": 923,
      "२": 924,
      "३": 925,
      "४": 926,
      "५": 927,
      "६": 928,
      "७": 929,
      "८": 930,
      "९": 931,
      "॰": 932,
      "ॲ": 933,
      "ঁ": 934,
      "ং": 935,
      "ঃ": 936,
      "অ": 937,
      "আ": 938,
      "ই": 939,
      "ঈ": 940,
      "উ": 941,
      "ঊ": 942,
      "ঋ": 943,
      "এ": 944,
      "ঐ": 945,
      "ও": 946,
      "ঔ": 947,
      "ক": 948,
      "খ": 949,
      "গ": 950,
      "ঘ": 951,
      "ঙ": 952,
      "চ": 953,
      "ছ": 954,
      "জ": 955,
      "ঝ": 956,
      "ঞ": 957,
      "ট": 958,
      "ঠ": 959,
      "ড": 960,
      "ঢ": 961,
      "ণ": 962,
      "ত": 963,
      "থ": 964,
      "দ": 965,
      "ধ": 966,
      "ন": 967,
      "প": 968,
      "ফ": 969,
      "ব": 970,
      "ভ": 971,
      "ম": 972,
      "য": 973,
      "র": 974,
      "ল": 975,
      "শ": 976,
      "ষ": 977,
      "স": 978,
      "হ": 979,
      "়": 980,
      "া": 981,
      "ি": 982,
      "ী": 983,
      "ু": 984,
      "ূ": 985,
      "ৃ": 986,
      "ে": 987,
      "ৈ": 988,
      "ো": 989,
      "ৌ": 990,
      "্": 991,
      "ৎ": 992,
      "০": 993,
      "১": 994,
      "২": 995,
      "৩": 996,
      "৪": 997,
      "৫": 998,
      "৬": 999,
      "৭": 1000,
      "৮": 1001,
      "৯": 1002,
      "ৰ": 1003,
      "ৱ": 1004,
      "৷": 1005,
      "ਂ": 1006,
      "ਅ": 1007,
      "ਆ": 1008,
      "ਇ": 1009,
      "ਈ": 1010,
      "ਉ": 1011,
      "ਊ": 1012,
      "ਏ": 1013,
      "ਐ": 1014,
      "ਓ": 1015,
      "ਔ": 1016,
      "ਕ": 1017,
      "ਖ": 1018,
      "ਗ": 1019,
      "ਘ": 1020,
      "ਚ": 1021,
      "ਛ": 1022,
      "ਜ": 1023,
      "ਝ": 1024,
      "ਟ": 1025,
      "ਠ": 1026,
      "ਡ": 1027,
      "ਢ": 1028,
      "ਣ": 1029,
      "ਤ": 1030,
      "ਥ": 1031,
      "ਦ": 1032,
      "ਧ": 1033,
      "ਨ": 1034,
      "ਪ": 1035,
      "ਫ": 1036,
      "ਬ": 1037,
      "ਭ": 1038,
      "ਮ": 1039,
      "ਯ": 1040,
      "ਰ": 1041,
      "ਲ": 1042,
      "ਵ": 1043,
      "ਸ": 1044,
      "ਹ": 1045,
      "਼": 1046,
      "ਾ": 1047,
      "ਿ": 1048,
      "ੀ": 1049,
      "ੁ": 1050,
      "ੂ": 1051,
      "ੇ": 1052,
      "ੈ": 1053,
      "ੋ": 1054,
      "ੌ": 1055,
      "੍": 1056,
      "ੜ": 1057,
      "੦": 1058,
      "੧": 1059,
      "੨": 1060,
      "੩": 1061,
      "੪": 1062,
      "੫": 1063,
      "ੰ": 1064,
      "ੱ": 1065,
      "ੲ": 1066,
      "ੳ": 1067,
      "ં": 1068,
      "ઃ": 1069,
      "અ": 1070,
      "આ": 1071,
      "ઇ": 1072,
      "ઈ": 1073,
      "ઉ": 1074,
      "ઊ": 1075,
      "ઋ": 1076,
      "ઍ": 1077,
      "એ": 1078,
      "ઐ": 1079,
      "ઑ": 1080,
      "ઓ": 1081,
      "ઔ": 1082,
      "ક": 1083,
      "ખ": 1084,
      "ગ": 1085,
      "ઘ": 1086,
      "ચ": 1087,
      "છ": 1088,
      "જ": 1089,
      "ઝ": 1090,
      "ઞ": 1091,
      "ટ": 1092,
      "ઠ": 1093,
      "ડ": 1094,
      "ઢ": 1095,
      "ણ": 1096,
      "ત": 1097,
      "થ": 1098,
      "દ": 1099,
      "ધ": 1100,
      "ન": 1101,
      "પ": 1102,
      "ફ": 1103,
      "બ": 1104,
      "ભ": 1105,
      "મ": 1106,
      "ય": 1107,
      "ર": 1108,
      "લ": 1109,
      "ળ": 1110,
      "વ": 1111,
      "શ": 1112,
      "ષ": 1113,
      "સ": 1114,
      "હ": 1115,
      "ા": 1116,
      "િ": 1117,
      "ી": 1118,
      "ુ": 1119,
      "ૂ": 1120,
      "ૃ": 1121,
      "ૅ": 1122,
      "ે": 1123,
      "ૈ": 1124,
      "ૉ": 1125,
      "ો": 1126,
      "ૌ": 1127,
      "્": 1128,
      "૦": 1129,
      "૧": 1130,
      "૨": 1131,
      "૩": 1132,
      "૪": 1133,
      "૫": 1134,
      "૬": 1135,
      "૭": 1136,
      "૮": 1137,
      "૯": 1138,
      "ஃ": 1139,
      "அ": 1140,
      "ஆ": 1141,
      "இ": 1142,
      "ஈ": 1143,
      "உ": 1144,
      "ஊ": 1145,
      "எ": 1146,
      "ஏ": 1147,
      "ஐ": 1148,
      "ஒ": 1149,
      "ஓ": 1150,
      "ஔ": 1151,
      "க": 1152,
      "ங": 1153,
      "ச": 1154,
      "ஜ": 1155,
      "ஞ": 1156,
      "ட": 1157,
      "ண": 1158,
      "த": 1159,
      "ந": 1160,
      "ன": 1161,
      "ப": 1162,
      "ம": 1163,
      "ய": 1164,
      "ர": 1165,
      "ற": 1166,
      "ல": 1167,
      "ள": 1168,
      "ழ": 1169,
      "வ": 1170,
      "ஷ": 1171,
      "ஸ": 1172,
      "ஹ": 1173,
      "ா": 1174,
      "ி": 1175,
      "ீ": 1176,
      "ு": 1177,
      "ூ": 1178,
      "ெ": 1179,
      "ே": 1180,
      "ை": 1181,
      "ொ": 1182,
      "ோ": 1183,
      "ௌ": 1184,
      "்": 1185,
      "ం": 1186,
      "ః": 1187,
      "అ": 1188,
      "ఆ": 1189,
      "ఇ": 1190,
      "ఈ": 1191,
      "ఉ": 1192,
      "ఊ": 1193,
      "ఋ": 1194,
      "ఎ": 1195,
      "ఏ": 1196,
      "ఐ": 1197,
      "ఒ": 1198,
      "ఓ": 1199,
      "ఔ": 1200,
      "క": 1201,
      "ఖ": 1202,
      "గ": 1203,
      "ఘ": 1204,
      "చ": 1205,
      "ఛ": 1206,
      "జ": 1207,
      "ఝ": 1208,
      "ఞ": 1209,
      "ట": 1210,
      "ఠ": 1211,
      "డ": 1212,
      "ఢ": 1213,
      "ణ": 1214,
      "త": 1215,
      "థ": 1216,
      "ద": 1217,
      "ధ": 1218,
      "న": 1219,
      "ప": 1220,
      "ఫ": 1221,
      "బ": 1222,
      "భ": 1223,
      "మ": 1224,
      "య": 1225,
      "ర": 1226,
      "ఱ": 1227,
      "ల": 1228,
      "ళ": 1229,
      "వ": 1230,
      "శ": 1231,
      "ష": 1232,
      "స": 1233,
      "హ": 1234,
      "ా": 1235,
      "ి": 1236,
      "ీ": 1237,
      "ు": 1238,
      "ూ": 1239,
      "ృ": 1240,
      "ె": 1241,
      "ే": 1242,
      "ై": 1243,
      "ొ": 1244,
      "ో": 1245,
      "ౌ": 1246,
      "్": 1247,
      "ಂ": 1248,
      "ಃ": 1249,
      "ಅ": 1250,
      "ಆ": 1251,
      "ಇ": 1252,
      "ಈ": 1253,
      "ಉ": 1254,
      "ಊ": 1255,
      "ಋ": 1256,
      "ಎ": 1257,
      "ಏ": 1258,
      "ಐ": 1259,
      "ಒ": 1260,
      "ಓ": 1261,
      "ಔ": 1262,
      "ಕ": 1263,
      "ಖ": 1264,
      "ಗ": 1265,
      "ಘ": 1266,
      "ಚ": 1267,
      "ಛ": 1268,
      "ಜ": 1269,
      "ಝ": 1270,
      "ಞ": 1271,
      "ಟ": 1272,
      "ಠ": 1273,
      "ಡ": 1274,
      "ಢ": 1275,
      "ಣ": 1276,
      "ತ": 1277,
      "ಥ": 1278,
      "ದ": 1279,
      "ಧ": 1280,
      "ನ": 1281,
      "ಪ": 1282,
      "ಫ": 1283,
      "ಬ": 1284,
      "ಭ": 1285,
      "ಮ": 1286,
      "ಯ": 1287,
      "ರ": 1288,
      "ಲ": 1289,
      "ಳ": 1290,
      "ವ": 1291,
      "ಶ": 1292,
      "ಷ": 1293,
      "ಸ": 1294,
      "ಹ": 1295,
      "ಾ": 1296,
      "ಿ": 1297,
      "ೀ": 1298,
      "ು": 1299,
      "ೂ": 1300,
      "ೃ": 1301,
      "ೆ": 1302,
      "ೇ": 1303,
      "ೈ": 1304,
      "ೊ": 1305,
      "ೋ": 1306,
      "ೌ": 1307,
      "್": 1308,
      "೦": 1309,
      "೧": 1310,
      "೨": 1311,
      "೩": 1312,
      "೪": 1313,
      "೫": 1314,
      "೬": 1315,
      "೭": 1316,
      "೮": 1317,
      "೯": 1318,
      "ം": 1319,
      "ഃ": 1320,
      "അ": 1321,
      "ആ": 1322,
      "ഇ": 1323,
      "ഈ": 1324,
      "ഉ": 1325,
      "ഊ": 1326,
      "ഋ": 1327,
      "എ": 1328,
      "ഏ": 1329,
      "ഐ": 1330,
      "ഒ": 1331,
      "ഓ": 1332,
      "ഔ": 1333,
      "ക": 1334,
      "ഖ": 1335,
      "ഗ": 1336,
      "ഘ": 1337,
      "ങ": 1338,
      "ച": 1339,
      "ഛ": 1340,
      "ജ": 1341,
      "ഞ": 1342,
      "ട": 1343,
      "ഠ": 1344,
      "ഡ": 1345,
      "ഢ": 1346,
      "ണ": 1347,
      "ത": 1348,
      "ഥ": 1349,
      "ദ": 1350,
      "ധ": 1351,
      "ന": 1352,
      "പ": 1353,
      "ഫ": 1354,
      "ബ": 1355,
      "ഭ": 1356,
      "മ": 1357,
      "യ": 1358,
      "ര": 1359,
      "റ": 1360,
      "ല": 1361,
      "ള": 1362,
      "ഴ": 1363,
      "വ": 1364,
      "ശ": 1365,
      "ഷ": 1366,
      "സ": 1367,
      "ഹ": 1368,
      "ാ": 1369,
      "ി": 1370,
      "ീ": 1371,
      "ു": 1372,
      "ൂ": 1373,
      "ൃ": 1374,
      "െ": 1375,
      "േ": 1376,
      "ൈ": 1377,
      "ൊ": 1378,
      "ോ": 1379,
      "ൌ": 1380,
      "്": 1381,
      "ൗ": 1382,
      "൧": 1383,
      "ൺ": 1384,
      "ൻ": 1385,
      "ർ": 1386,
      "ൽ": 1387,
      "ൾ": 1388,
      "ක": 1389,
      "ය": 1390,
      "ර": 1391,
      "ල": 1392,
      "්": 1393,
      "ා": 1394,
      "ก": 1395,
      "ข": 1396,
      "ค": 1397,
      "ฆ": 1398,
      "ง": 1399,
      "จ": 1400,
      "ฉ": 1401,
      "ช": 1402,
      "ซ": 1403,
      "ฌ": 1404,
      "ญ": 1405,
      "ฎ": 1406,
      "ฏ": 1407,
      "ฐ": 1408,
      "ฑ": 1409,
      "ฒ": 1410,
      "ณ": 1411,
      "ด": 1412,
      "ต": 1413,
      "ถ": 1414,
      "ท": 1415,
      "ธ": 1416,
      "น": 1417,
      "บ": 1418,
      "ป": 1419,
      "ผ": 1420,
      "ฝ": 1421,
      "พ": 1422,
      "ฟ": 1423,
      "ภ": 1424,
      "ม": 1425,
      "ย": 1426,
      "ร": 1427,
      "ฤ": 1428,
      "ล": 1429,
      "ว": 1430,
      "ศ": 1431,
      "ษ": 1432,
      "ส": 1433,
      "ห": 1434,
      "ฬ": 1435,
      "อ": 1436,
      "ฮ": 1437,
      "ฯ": 1438,
      "ะ": 1439,
      "ั": 1440,
      "า": 1441,
      "ำ": 1442,
      "ิ": 1443,
      "ี": 1444,
      "ึ": 1445,
      "ื": 1446,
      "ุ": 1447,
      "ู": 1448,
      "ฺ": 1449,
      "เ": 1450,
      "แ": 1451,
      "โ": 1452,
      "ใ": 1453,
      "ไ": 1454,
      "ๆ": 1455,
      "็": 1456,
      "่": 1457,
      "้": 1458,
      "๊": 1459,
      "๋": 1460,
      "์": 1461,
      "๐": 1462,
      "๑": 1463,
      "๒": 1464,
      "๓": 1465,
      "๔": 1466,
      "๕": 1467,
      "๖": 1468,
      "๗": 1469,
      "๘": 1470,
      "๙": 1471,
      "་": 1472,
      "།": 1473,
      "ག": 1474,
      "ང": 1475,
      "ཆ": 1476,
      "ད": 1477,
      "ན": 1478,
      "པ": 1479,
      "བ": 1480,
      "མ": 1481,
      "ཚ": 1482,
      "ར": 1483,
      "ལ": 1484,
      "ས": 1485,
      "ི": 1486,
      "ེ": 1487,
      "ོ": 1488,
      "ྒ": 1489,
      "ྫ": 1490,
      "ྱ": 1491,
      "က": 1492,
      "ခ": 1493,
      "ဂ": 1494,
      "ဃ": 1495,
      "င": 1496,
      "စ": 1497,
      "ဆ": 1498,
      "ဇ": 1499,
      "ဈ": 1500,
      "ဉ": 1501,
      "ည": 1502,
      "ဋ": 1503,
      "ဌ": 1504,
      "ဍ": 1505,
      "ဏ": 1506,
      "တ": 1507,
      "ထ": 1508,
      "ဒ": 1509,
      "ဓ": 1510,
      "န": 1511,
      "ပ": 1512,
      "ဖ": 1513,
      "ဗ": 1514,
      "ဘ": 1515,
      "မ": 1516,
      "ယ": 1517,
      "ရ": 1518,
      "လ": 1519,
      "ဝ": 1520,
      "သ": 1521,
      "ဟ": 1522,
      "ဠ": 1523,
      "အ": 1524,
      "ဤ": 1525,
      "ဥ": 1526,
      "ဦ": 1527,
      "ဧ": 1528,
      "ဩ": 1529,
      "ါ": 1530,
      "ာ": 1531,
      "ိ": 1532,
      "ီ": 1533,
      "ု": 1534,
      "ူ": 1535,
      "ေ": 1536,
      "ဲ": 1537,
      "ံ": 1538,
      "့": 1539,
      "း": 1540,
      "္": 1541,
      "်": 1542,
      "ျ": 1543,
      "ြ": 1544,
      "ွ": 1545,
      "ှ": 1546,
      "ဿ": 1547,
      "၀": 1548,
      "၁": 1549,
      "၂": 1550,
      "၃": 1551,
      "၄": 1552,
      "၅": 1553,
      "၆": 1554,
      "၇": 1555,
      "၈": 1556,
      "၉": 1557,
      "၊": 1558,
      "။": 1559,
      "၌": 1560,
      "၍": 1561,
      "၎": 1562,
      "၏": 1563,
      "ა": 1564,
      "ბ": 1565,
      "გ": 1566,
      "დ": 1567,
      "ე": 1568,
      "ვ": 1569,
      "ზ": 1570,
      "თ": 1571,
      "ი": 1572,
      "კ": 1573,
      "ლ": 1574,
      "მ": 1575,
      "ნ": 1576,
      "ო": 1577,
      "პ": 1578,
      "ჟ": 1579,
      "რ": 1580,
      "ს": 1581,
      "ტ": 1582,
      "უ": 1583,
      "ფ": 1584,
      "ქ": 1585,
      "ღ": 1586,
      "ყ": 1587,
      "შ": 1588,
      "ჩ": 1589,
      "ც": 1590,
      "ძ": 1591,
      "წ": 1592,
      "ჭ": 1593,
      "ხ": 1594,
      "ჯ": 1595,
      "ჰ": 1596,
      "ჲ": 1597,
      "ᠢ": 1598,
      "ᠨ": 1599,
      "ᴬ": 1600,
      "ᴮ": 1601,
      "ᴰ": 1602,
      "ᴵ": 1603,
      "ᴾ": 1604,
      "ᵀ": 1605,
      "ᵃ": 1606,
      "ᵇ": 1607,
      "ᵈ": 1608,
      "ᵉ": 1609,
      "ᵍ": 1610,
      "ᵏ": 1611,
      "ᵐ": 1612,
      "ᵒ": 1613,
      "ᵖ": 1614,
      "ᵗ": 1615,
      "ᵘ": 1616,
      "ᵛ": 1617,
      "ᵢ": 1618,
      "ᵣ": 1619,
      "ᵤ": 1620,
      "ᶜ": 1621,
      "ᶠ": 1622,
      "ḍ": 1623,
      "ḏ": 1624,
      "Ḑ": 1625,
      "ḑ": 1626,
      "Ḥ": 1627,
      "ḥ": 1628,
      "Ḩ": 1629,
      "ḩ": 1630,
      "Ḫ": 1631,
      "ḫ": 1632,
      "ḷ": 1633,
      "ṃ": 1634,
      "ṇ": 1635,
      "ṛ": 1636,
      "ṟ": 1637,
      "Ṣ": 1638,
      "ṣ": 1639,
      "Ṭ": 1640,
      "ṭ": 1641,
      "ṯ": 1642,
      "ẕ": 1643,
      "ạ": 1644,
      "Ả": 1645,
      "ả": 1646,
      "Ấ": 1647,
      "ấ": 1648,
      "ầ": 1649,
      "Ẩ": 1650,
      "ẩ": 1651,
      "ẫ": 1652,
      "ậ": 1653,
      "ắ": 1654,
      "ằ": 1655,
      "ẳ": 1656,
      "ẵ": 1657,
      "ặ": 1658,
      "Ẹ": 1659,
      "ẹ": 1660,
      "ẻ": 1661,
      "ẽ": 1662,
      "ế": 1663,
      "ề": 1664,
      "ể": 1665,
      "ễ": 1666,
      "ệ": 1667,
      "ỉ": 1668,
      "ị": 1669,
      "Ọ": 1670,
      "ọ": 1671,
      "ỏ": 1672,
      "Ố": 1673,
      "ố": 1674,
      "ồ": 1675,
      "ổ": 1676,
      "ỗ": 1677,
      "ộ": 1678,
      "ớ": 1679,
      "ờ": 1680,
      "Ở": 1681,
      "ở": 1682,
      "ỡ": 1683,
      "ợ": 1684,
      "ụ": 1685,
      "Ủ": 1686,
      "ủ": 1687,
      "Ứ": 1688,
      "ứ": 1689,
      "ừ": 1690,
      "ử": 1691,
      "ữ": 1692,
      "ự": 1693,
      "ỳ": 1694,
      "ỵ": 1695,
      "ỷ": 1696,
      "ỹ": 1697,
      "ἀ": 1698,
      "ἄ": 1699,
      "Ἀ": 1700,
      "ἐ": 1701,
      "ἡ": 1702,
      "ἢ": 1703,
      "ἰ": 1704,
      "ἱ": 1705,
      "ἶ": 1706,
      "ὁ": 1707,
      "ὅ": 1708,
      "ὐ": 1709,
      "ὡ": 1710,
      "ὰ": 1711,
      "ὲ": 1712,
      "ὴ": 1713,
      "ὶ": 1714,
      "ὸ": 1715,
      "ὺ": 1716,
      "ῆ": 1717,
      "ῇ": 1718,
      "ῖ": 1719,
      "ῦ": 1720,
      "ῶ": 1721,
      "ῷ": 1722,
      "‖": 1723,
      "‚": 1724,
      "„": 1725,
      "‟": 1726,
      "†": 1727,
      "‡": 1728,
      "•": 1729,
      "․": 1730,
      "‥": 1731,
      "‧": 1732,
      "‰": 1733,
      "′": 1734,
      "″": 1735,
      "‹": 1736,
      "›": 1737,
      "※": 1738,
      "‿": 1739,
      "⁄": 1740,
      "⁰": 1741,
      "ⁱ": 1742,
      "⁴": 1743,
      "⁵": 1744,
      "⁶": 1745,
      "⁷": 1746,
      "⁸": 1747,
      "⁹": 1748,
      "⁺": 1749,
      "⁻": 1750,
      "⁾": 1751,
      "ⁿ": 1752,
      "₀": 1753,
      "₁": 1754,
      "₂": 1755,
      "₃": 1756,
      "₄": 1757,
      "₅": 1758,
      "₆": 1759,
      "₇": 1760,
      "₈": 1761,
      "₍": 1762,
      "₎": 1763,
      "ₐ": 1764,
      "ₑ": 1765,
      "ₒ": 1766,
      "ₓ": 1767,
      "ₖ": 1768,
      "ₘ": 1769,
      "ₙ": 1770,
      "ₚ": 1771,
      "ₛ": 1772,
      "ₜ": 1773,
      "₤": 1774,
      "€": 1775,
      "₹": 1776,
      "℃": 1777,
      "ℓ": 1778,
      "№": 1779,
      "ℝ": 1780,
      "™": 1781,
      "ℤ": 1782,
      "⅓": 1783,
      "⅔": 1784,
      "Ⅰ": 1785,
      "Ⅱ": 1786,
      "Ⅲ": 1787,
      "Ⅳ": 1788,
      "←": 1789,
      "↑": 1790,
      "→": 1791,
      "↓": 1792,
      "↔": 1793,
      "↺": 1794,
      "⇄": 1795,
      "⇌": 1796,
      "⇒": 1797,
      "⇔": 1798,
      "∀": 1799,
      "∅": 1800,
      "∇": 1801,
      "∈": 1802,
      "−": 1803,
      "∗": 1804,
      "∘": 1805,
      "∙": 1806,
      "√": 1807,
      "∞": 1808,
      "∧": 1809,
      "∨": 1810,
      "∩": 1811,
      "∪": 1812,
      "∫": 1813,
      "∼": 1814,
      "≈": 1815,
      "≠": 1816,
      "≡": 1817,
      "≤": 1818,
      "≥": 1819,
      "≪": 1820,
      "≫": 1821,
      "⊂": 1822,
      "⊆": 1823,
      "⊕": 1824,
      "⊗": 1825,
      "⊙": 1826,
      "⋅": 1827,
      "⋯": 1828,
      "〈": 1829,
      "〉": 1830,
      "①": 1831,
      "②": 1832,
      "③": 1833,
      "④": 1834,
      "⑤": 1835,
      "─": 1836,
      "━": 1837,
      "│": 1838,
      "┃": 1839,
      "┓": 1840,
      "└": 1841,
      "├": 1842,
      "┣": 1843,
      "┫": 1844,
      "║": 1845,
      "█": 1846,
      "■": 1847,
      "□": 1848,
      "▪": 1849,
      "▭": 1850,
      "▲": 1851,
      "△": 1852,
      "►": 1853,
      "▼": 1854,
      "◆": 1855,
      "◇": 1856,
      "○": 1857,
      "◎": 1858,
      "●": 1859,
      "◡": 1860,
      "★": 1861,
      "☆": 1862,
      "☉": 1863,
      "♀": 1864,
      "♂": 1865,
      "♕": 1866,
      "♙": 1867,
      "♠": 1868,
      "♡": 1869,
      "♣": 1870,
      "♥": 1871,
      "♦": 1872,
      "♪": 1873,
      "♭": 1874,
      "♯": 1875,
      "⚭": 1876,
      "✝": 1877,
      "⟨": 1878,
      "⟩": 1879,
      "ⱼ": 1880,
      "、": 1881,
      "。": 1882,
      "〃": 1883,
      "々": 1884,
      "〇": 1885,
      "〈": 1886,
      "〉": 1887,
      "《": 1888,
      "》": 1889,
      "「": 1890,
      "」": 1891,
      "『": 1892,
      "』": 1893,
      "【": 1894,
      "】": 1895,
      "〒": 1896,
      "〔": 1897,
      "〕": 1898,
      "〖": 1899,
      "〗": 1900,
      "〜": 1901,
      "〝": 1902,
      "ぁ": 1903,
      "あ": 1904,
      "ぃ": 1905,
      "い": 1906,
      "う": 1907,
      "ぇ": 1908,
      "え": 1909,
      "お": 1910,
      "か": 1911,
      "が": 1912,
      "き": 1913,
      "ぎ": 1914,
      "く": 1915,
      "ぐ": 1916,
      "け": 1917,
      "げ": 1918,
      "こ": 1919,
      "ご": 1920,
      "さ": 1921,
      "ざ": 1922,
      "し": 1923,
      "じ": 1924,
      "す": 1925,
      "ず": 1926,
      "せ": 1927,
      "ぜ": 1928,
      "そ": 1929,
      "ぞ": 1930,
      "た": 1931,
      "だ": 1932,
      "ち": 1933,
      "ぢ": 1934,
      "っ": 1935,
      "つ": 1936,
      "づ": 1937,
      "て": 1938,
      "で": 1939,
      "と": 1940,
      "ど": 1941,
      "な": 1942,
      "に": 1943,
      "ぬ": 1944,
      "ね": 1945,
      "の": 1946,
      "は": 1947,
      "ば": 1948,
      "ぱ": 1949,
      "ひ": 1950,
      "び": 1951,
      "ぴ": 1952,
      "ふ": 1953,
      "ぶ": 1954,
      "ぷ": 1955,
      "へ": 1956,
      "べ": 1957,
      "ぺ": 1958,
      "ほ": 1959,
      "ぼ": 1960,
      "ぽ": 1961,
      "ま": 1962,
      "み": 1963,
      "む": 1964,
      "め": 1965,
      "も": 1966,
      "ゃ": 1967,
      "や": 1968,
      "ゅ": 1969,
      "ゆ": 1970,
      "ょ": 1971,
      "よ": 1972,
      "ら": 1973,
      "り": 1974,
      "る": 1975,
      "れ": 1976,
      "ろ": 1977,
      "わ": 1978,
      "ゐ": 1979,
      "を": 1980,
      "ん": 1981,
      "ゝ": 1982,
      "ゞ": 1983,
      "ァ": 1984,
      "ア": 1985,
      "ィ": 1986,
      "イ": 1987,
      "ゥ": 1988,
      "ウ": 1989,
      "ェ": 1990,
      "エ": 1991,
      "ォ": 1992,
      "オ": 1993,
      "カ": 1994,
      "ガ": 1995,
      "キ": 1996,
      "ギ": 1997,
      "ク": 1998,
      "グ": 1999,
      "ケ": 2000,
      "ゲ": 2001,
      "コ": 2002,
      "ゴ": 2003,
      "サ": 2004,
      "ザ": 2005,
      "シ": 2006,
      "ジ": 2007,
      "ス": 2008,
      "ズ": 2009,
      "セ": 2010,
      "ゼ": 2011,
      "ソ": 2012,
      "ゾ": 2013,
      "タ": 2014,
      "ダ": 2015,
      "チ": 2016,
      "ヂ": 2017,
      "ッ": 2018,
      "ツ": 2019,
      "ヅ": 2020,
      "テ": 2021,
      "デ": 2022,
      "ト": 2023,
      "ド": 2024,
      "ナ": 2025,
      "ニ": 2026,
      "ヌ": 2027,
      "ネ": 2028,
      "ノ": 2029,
      "ハ": 2030,
      "バ": 2031,
      "パ": 2032,
      "ヒ": 2033,
      "ビ": 2034,
      "ピ": 2035,
      "フ": 2036,
      "ブ": 2037,
      "プ": 2038,
      "ヘ": 2039,
      "ベ": 2040,
      "ペ": 2041,
      "ホ": 2042,
      "ボ": 2043,
      "ポ": 2044,
      "マ": 2045,
      "ミ": 2046,
      "ム": 2047,
      "メ": 2048,
      "モ": 2049,
      "ャ": 2050,
      "ヤ": 2051,
      "ュ": 2052,
      "ユ": 2053,
      "ョ": 2054,
      "ヨ": 2055,
      "ラ": 2056,
      "リ": 2057,
      "ル": 2058,
      "レ": 2059,
      "ロ": 2060,
      "ワ": 2061,
      "ヱ": 2062,
      "ヲ": 2063,
      "ン": 2064,
      "ヴ": 2065,
      "ヵ": 2066,
      "ヶ": 2067,
      "・": 2068,
      "ー": 2069,
      "ㆍ": 2070,
      "䲁": 2071,
      "一": 2072,
      "丁": 2073,
      "七": 2074,
      "万": 2075,
      "丈": 2076,
      "三": 2077,
      "上": 2078,
      "下": 2079,
      "不": 2080,
      "与": 2081,
      "丐": 2082,
      "丑": 2083,
      "专": 2084,
      "且": 2085,
      "丕": 2086,
      "世": 2087,
      "丘": 2088,
      "丙": 2089,
      "业": 2090,
      "丛": 2091,
      "东": 2092,
      "丝": 2093,
      "丞": 2094,
      "丟": 2095,
      "両": 2096,
      "丢": 2097,
      "两": 2098,
      "严": 2099,
      "並": 2100,
      "丧": 2101,
      "个": 2102,
      "丫": 2103,
      "中": 2104,
      "丰": 2105,
      "串": 2106,
      "临": 2107,
      "丸": 2108,
      "丹": 2109,
      "为": 2110,
      "主": 2111,
      "丼": 2112,
      "丽": 2113,
      "举": 2114,
      "乂": 2115,
      "乃": 2116,
      "久": 2117,
      "么": 2118,
      "义": 2119,
      "之": 2120,
      "乌": 2121,
      "乍": 2122,
      "乎": 2123,
      "乏": 2124,
      "乐": 2125,
      "乒": 2126,
      "乓": 2127,
      "乔": 2128,
      "乖": 2129,
      "乗": 2130,
      "乘": 2131,
      "乙": 2132,
      "九": 2133,
      "乞": 2134,
      "也": 2135,
      "习": 2136,
      "乡": 2137,
      "书": 2138,
      "乩": 2139,
      "买": 2140,
      "乱": 2141,
      "乳": 2142,
      "乾": 2143,
      "亀": 2144,
      "亂": 2145,
      "了": 2146,
      "予": 2147,
      "争": 2148,
      "事": 2149,
      "二": 2150,
      "于": 2151,
      "亏": 2152,
      "云": 2153,
      "互": 2154,
      "五": 2155,
      "井": 2156,
      "亘": 2157,
      "亚": 2158,
      "些": 2159,
      "亜": 2160,
      "亞": 2161,
      "亟": 2162,
      "亡": 2163,
      "亢": 2164,
      "交": 2165,
      "亥": 2166,
      "亦": 2167,
      "产": 2168,
      "亨": 2169,
      "亩": 2170,
      "享": 2171,
      "京": 2172,
      "亭": 2173,
      "亮": 2174,
      "亲": 2175,
      "亳": 2176,
      "亵": 2177,
      "亶": 2178,
      "人": 2179,
      "亿": 2180,
      "什": 2181,
      "仁": 2182,
      "仄": 2183,
      "仅": 2184,
      "仆": 2185,
      "仇": 2186,
      "今": 2187,
      "介": 2188,
      "仍": 2189,
      "从": 2190,
      "仏": 2191,
      "仑": 2192,
      "仓": 2193,
      "仔": 2194,
      "仕": 2195,
      "他": 2196,
      "仗": 2197,
      "付": 2198,
      "仙": 2199,
      "仝": 2200,
      "仡": 2201,
      "代": 2202,
      "令": 2203,
      "以": 2204,
      "仪": 2205,
      "们": 2206,
      "仮": 2207,
      "仰": 2208,
      "仲": 2209,
      "件": 2210,
      "价": 2211,
      "任": 2212,
      "份": 2213,
      "仿": 2214,
      "企": 2215,
      "伉": 2216,
      "伊": 2217,
      "伍": 2218,
      "伎": 2219,
      "伏": 2220,
      "伐": 2221,
      "休": 2222,
      "众": 2223,
      "优": 2224,
      "伙": 2225,
      "会": 2226,
      "伝": 2227,
      "伞": 2228,
      "伟": 2229,
      "传": 2230,
      "伤": 2231,
      "伦": 2232,
      "伪": 2233,
      "伯": 2234,
      "估": 2235,
      "伴": 2236,
      "伶": 2237,
      "伸": 2238,
      "伺": 2239,
      "似": 2240,
      "伽": 2241,
      "佃": 2242,
      "但": 2243,
      "佇": 2244,
      "佈": 2245,
      "位": 2246,
      "低": 2247,
      "住": 2248,
      "佐": 2249,
      "佑": 2250,
      "体": 2251,
      "佔": 2252,
      "何": 2253,
      "佗": 2254,
      "佘": 2255,
      "余": 2256,
      "佚": 2257,
      "佛": 2258,
      "作": 2259,
      "佞": 2260,
      "佟": 2261,
      "你": 2262,
      "佢": 2263,
      "佣": 2264,
      "佤": 2265,
      "佥": 2266,
      "佩": 2267,
      "佬": 2268,
      "佯": 2269,
      "佰": 2270,
      "佳": 2271,
      "併": 2272,
      "佶": 2273,
      "佼": 2274,
      "使": 2275,
      "侃": 2276,
      "侄": 2277,
      "來": 2278,
      "侈": 2279,
      "例": 2280,
      "侍": 2281,
      "侏": 2282,
      "侑": 2283,
      "侖": 2284,
      "侗": 2285,
      "供": 2286,
      "依": 2287,
      "侠": 2288,
      "価": 2289,
      "侣": 2290,
      "侦": 2291,
      "侧": 2292,
      "侨": 2293,
      "侬": 2294,
      "侮": 2295,
      "侯": 2296,
      "侵": 2297,
      "侶": 2298,
      "便": 2299,
      "俁": 2300,
      "係": 2301,
      "促": 2302,
      "俄": 2303,
      "俊": 2304,
      "俎": 2305,
      "俏": 2306,
      "俐": 2307,
      "俑": 2308,
      "俗": 2309,
      "俘": 2310,
      "俚": 2311,
      "保": 2312,
      "俞": 2313,
      "俟": 2314,
      "俠": 2315,
      "信": 2316,
      "俣": 2317,
      "俨": 2318,
      "俩": 2319,
      "俪": 2320,
      "俭": 2321,
      "修": 2322,
      "俯": 2323,
      "俱": 2324,
      "俳": 2325,
      "俵": 2326,
      "俶": 2327,
      "俸": 2328,
      "俺": 2329,
      "俾": 2330,
      "倆": 2331,
      "倉": 2332,
      "個": 2333,
      "倍": 2334,
      "們": 2335,
      "倒": 2336,
      "倖": 2337,
      "倘": 2338,
      "候": 2339,
      "倚": 2340,
      "借": 2341,
      "倡": 2342,
      "倣": 2343,
      "値": 2344,
      "倦": 2345,
      "倩": 2346,
      "倪": 2347,
      "倫": 2348,
      "倬": 2349,
      "倭": 2350,
      "倶": 2351,
      "倹": 2352,
      "债": 2353,
      "倻": 2354,
      "值": 2355,
      "倾": 2356,
      "偃": 2357,
      "假": 2358,
      "偈": 2359,
      "偉": 2360,
      "偏": 2361,
      "偕": 2362,
      "做": 2363,
      "停": 2364,
      "健": 2365,
      "偲": 2366,
      "側": 2367,
      "偵": 2368,
      "偶": 2369,
      "偷": 2370,
      "偽": 2371,
      "偿": 2372,
      "傀": 2373,
      "傅": 2374,
      "傈": 2375,
      "傍": 2376,
      "傑": 2377,
      "傕": 2378,
      "傘": 2379,
      "備": 2380,
      "傢": 2381,
      "傣": 2382,
      "储": 2383,
      "催": 2384,
      "傭": 2385,
      "傲": 2386,
      "傳": 2387,
      "債": 2388,
      "傷": 2389,
      "傻": 2390,
      "傾": 2391,
      "僅": 2392,
      "僉": 2393,
      "働": 2394,
      "像": 2395,
      "僑": 2396,
      "僕": 2397,
      "僖": 2398,
      "僚": 2399,
      "僧": 2400,
      "僭": 2401,
      "僮": 2402,
      "僱": 2403,
      "僳": 2404,
      "僵": 2405,
      "價": 2406,
      "僻": 2407,
      "儀": 2408,
      "儁": 2409,
      "儂": 2410,
      "億": 2411,
      "儉": 2412,
      "儋": 2413,
      "儒": 2414,
      "儘": 2415,
      "儚": 2416,
      "償": 2417,
      "儡": 2418,
      "優": 2419,
      "儲": 2420,
      "儷": 2421,
      "儼": 2422,
      "儿": 2423,
      "兀": 2424,
      "允": 2425,
      "元": 2426,
      "兄": 2427,
      "充": 2428,
      "兆": 2429,
      "兇": 2430,
      "先": 2431,
      "光": 2432,
      "克": 2433,
      "兌": 2434,
      "免": 2435,
      "兎": 2436,
      "児": 2437,
      "兑": 2438,
      "兒": 2439,
      "兔": 2440,
      "兖": 2441,
      "兗": 2442,
      "党": 2443,
      "兜": 2444,
      "兢": 2445,
      "入": 2446,
      "內": 2447,
      "全": 2448,
      "兩": 2449,
      "兪": 2450,
      "八": 2451,
      "公": 2452,
      "六": 2453,
      "兮": 2454,
      "兰": 2455,
      "共": 2456,
      "关": 2457,
      "兴": 2458,
      "兵": 2459,
      "其": 2460,
      "具": 2461,
      "典": 2462,
      "兹": 2463,
      "养": 2464,
      "兼": 2465,
      "兽": 2466,
      "冀": 2467,
      "内": 2468,
      "円": 2469,
      "冇": 2470,
      "冈": 2471,
      "冉": 2472,
      "冊": 2473,
      "册": 2474,
      "再": 2475,
      "冏": 2476,
      "冑": 2477,
      "冒": 2478,
      "冕": 2479,
      "冗": 2480,
      "写": 2481,
      "军": 2482,
      "农": 2483,
      "冠": 2484,
      "冢": 2485,
      "冤": 2486,
      "冥": 2487,
      "冨": 2488,
      "冪": 2489,
      "冬": 2490,
      "冯": 2491,
      "冰": 2492,
      "冲": 2493,
      "决": 2494,
      "冴": 2495,
      "况": 2496,
      "冶": 2497,
      "冷": 2498,
      "冻": 2499,
      "冼": 2500,
      "净": 2501,
      "凄": 2502,
      "准": 2503,
      "凉": 2504,
      "凋": 2505,
      "凌": 2506,
      "凍": 2507,
      "减": 2508,
      "凑": 2509,
      "凛": 2510,
      "凜": 2511,
      "凝": 2512,
      "几": 2513,
      "凡": 2514,
      "凤": 2515,
      "処": 2516,
      "凧": 2517,
      "凪": 2518,
      "凭": 2519,
      "凯": 2520,
      "凰": 2521,
      "凱": 2522,
      "凳": 2523,
      "凶": 2524,
      "凸": 2525,
      "凹": 2526,
      "出": 2527,
      "击": 2528,
      "函": 2529,
      "凿": 2530,
      "刀": 2531,
      "刁": 2532,
      "刃": 2533,
      "分": 2534,
      "切": 2535,
      "刈": 2536,
      "刊": 2537,
      "刍": 2538,
      "刎": 2539,
      "刑": 2540,
      "划": 2541,
      "列": 2542,
      "刘": 2543,
      "则": 2544,
      "刚": 2545,
      "创": 2546,
      "初": 2547,
      "删": 2548,
      "判": 2549,
      "別": 2550,
      "利": 2551,
      "刪": 2552,
      "别": 2553,
      "刮": 2554,
      "到": 2555,
      "制": 2556,
      "刷": 2557,
      "券": 2558,
      "刹": 2559,
      "刺": 2560,
      "刻": 2561,
      "剂": 2562,
      "剃": 2563,
      "則": 2564,
      "削": 2565,
      "剋": 2566,
      "剌": 2567,
      "前": 2568,
      "剎": 2569,
      "剑": 2570,
      "剔": 2571,
      "剖": 2572,
      "剛": 2573,
      "剝": 2574,
      "剣": 2575,
      "剤": 2576,
      "剥": 2577,
      "剧": 2578,
      "剩": 2579,
      "剪": 2580,
      "副": 2581,
      "剰": 2582,
      "割": 2583,
      "創": 2584,
      "剷": 2585,
      "剽": 2586,
      "剿": 2587,
      "劃": 2588,
      "劇": 2589,
      "劈": 2590,
      "劉": 2591,
      "劍": 2592,
      "劑": 2593,
      "力": 2594,
      "劝": 2595,
      "办": 2596,
      "功": 2597,
      "加": 2598,
      "务": 2599,
      "劣": 2600,
      "动": 2601,
      "助": 2602,
      "努": 2603,
      "劫": 2604,
      "劭": 2605,
      "励": 2606,
      "劲": 2607,
      "劳": 2608,
      "労": 2609,
      "効": 2610,
      "劾": 2611,
      "势": 2612,
      "勁": 2613,
      "勃": 2614,
      "勅": 2615,
      "勇": 2616,
      "勉": 2617,
      "勋": 2618,
      "勐": 2619,
      "勒": 2620,
      "動": 2621,
      "勖": 2622,
      "勗": 2623,
      "勘": 2624,
      "務": 2625,
      "勛": 2626,
      "勝": 2627,
      "勞": 2628,
      "募": 2629,
      "勢": 2630,
      "勤": 2631,
      "勧": 2632,
      "勲": 2633,
      "勳": 2634,
      "勵": 2635,
      "勸": 2636,
      "勺": 2637,
      "勻": 2638,
      "勾": 2639,
      "勿": 2640,
      "匀": 2641,
      "匂": 2642,
      "包": 2643,
      "匆": 2644,
      "匈": 2645,
      "匍": 2646,
      "匐": 2647,
      "匕": 2648,
      "化": 2649,
      "北": 2650,
      "匙": 2651,
      "匝": 2652,
      "匠": 2653,
      "匡": 2654,
      "匣": 2655,
      "匪": 2656,
      "匮": 2657,
      "匯": 2658,
      "匱": 2659,
      "匹": 2660,
      "区": 2661,
      "医": 2662,
      "匾": 2663,
      "匿": 2664,
      "區": 2665,
      "十": 2666,
      "千": 2667,
      "卅": 2668,
      "升": 2669,
      "午": 2670,
      "卉": 2671,
      "半": 2672,
      "卍": 2673,
      "华": 2674,
      "协": 2675,
      "卑": 2676,
      "卒": 2677,
      "卓": 2678,
      "協": 2679,
      "单": 2680,
      "卖": 2681,
      "南": 2682,
      "単": 2683,
      "博": 2684,
      "卜": 2685,
      "卞": 2686,
      "占": 2687,
      "卡": 2688,
      "卢": 2689,
      "卤": 2690,
      "卦": 2691,
      "卧": 2692,
      "卫": 2693,
      "卯": 2694,
      "印": 2695,
      "危": 2696,
      "即": 2697,
      "却": 2698,
      "卵": 2699,
      "卷": 2700,
      "卸": 2701,
      "卻": 2702,
      "卿": 2703,
      "厂": 2704,
      "厄": 2705,
      "厅": 2706,
      "历": 2707,
      "厉": 2708,
      "压": 2709,
      "厌": 2710,
      "厕": 2711,
      "厘": 2712,
      "厚": 2713,
      "厝": 2714,
      "原": 2715,
      "厢": 2716,
      "厥": 2717,
      "厦": 2718,
      "厨": 2719,
      "厩": 2720,
      "厭": 2721,
      "厲": 2722,
      "厳": 2723,
      "去": 2724,
      "县": 2725,
      "参": 2726,
      "參": 2727,
      "又": 2728,
      "叉": 2729,
      "及": 2730,
      "友": 2731,
      "双": 2732,
      "反": 2733,
      "収": 2734,
      "发": 2735,
      "叔": 2736,
      "取": 2737,
      "受": 2738,
      "变": 2739,
      "叙": 2740,
      "叛": 2741,
      "叟": 2742,
      "叠": 2743,
      "叡": 2744,
      "叢": 2745,
      "口": 2746,
      "古": 2747,
      "句": 2748,
      "另": 2749,
      "叩": 2750,
      "只": 2751,
      "叫": 2752,
      "召": 2753,
      "叭": 2754,
      "叮": 2755,
      "可": 2756,
      "台": 2757,
      "叱": 2758,
      "史": 2759,
      "右": 2760,
      "叶": 2761,
      "号": 2762,
      "司": 2763,
      "叹": 2764,
      "叻": 2765,
      "吁": 2766,
      "吃": 2767,
      "各": 2768,
      "合": 2769,
      "吉": 2770,
      "吊": 2771,
      "吋": 2772,
      "同": 2773,
      "名": 2774,
      "后": 2775,
      "吏": 2776,
      "吐": 2777,
      "向": 2778,
      "吒": 2779,
      "吓": 2780,
      "吕": 2781,
      "吗": 2782,
      "君": 2783,
      "吝": 2784,
      "吞": 2785,
      "吟": 2786,
      "吠": 2787,
      "吡": 2788,
      "否": 2789,
      "吧": 2790,
      "吨": 2791,
      "吩": 2792,
      "含": 2793,
      "听": 2794,
      "启": 2795,
      "吳": 2796,
      "吴": 2797,
      "吵": 2798,
      "吶": 2799,
      "吸": 2800,
      "吹": 2801,
      "吻": 2802,
      "吼": 2803,
      "吾": 2804,
      "呀": 2805,
      "呂": 2806,
      "呆": 2807,
      "呈": 2808,
      "呉": 2809,
      "告": 2810,
      "呋": 2811,
      "呎": 2812,
      "呐": 2813,
      "呑": 2814,
      "呕": 2815,
      "员": 2816,
      "呛": 2817,
      "呜": 2818,
      "呟": 2819,
      "呢": 2820,
      "呤": 2821,
      "周": 2822,
      "呪": 2823,
      "味": 2824,
      "呵": 2825,
      "呼": 2826,
      "命": 2827,
      "咀": 2828,
      "咁": 2829,
      "咄": 2830,
      "咆": 2831,
      "咋": 2832,
      "和": 2833,
      "咎": 2834,
      "咏": 2835,
      "咐": 2836,
      "咒": 2837,
      "咕": 2838,
      "咖": 2839,
      "咤": 2840,
      "咥": 2841,
      "咨": 2842,
      "咩": 2843,
      "咪": 2844,
      "咫": 2845,
      "咬": 2846,
      "咯": 2847,
      "咱": 2848,
      "咲": 2849,
      "咳": 2850,
      "咸": 2851,
      "咽": 2852,
      "哀": 2853,
      "品": 2854,
      "哄": 2855,
      "哆": 2856,
      "哇": 2857,
      "哈": 2858,
      "哉": 2859,
      "哌": 2860,
      "响": 2861,
      "哑": 2862,
      "哗": 2863,
      "員": 2864,
      "哥": 2865,
      "哦": 2866,
      "哨": 2867,
      "哩": 2868,
      "哪": 2869,
      "哭": 2870,
      "哮": 2871,
      "哲": 2872,
      "哺": 2873,
      "哼": 2874,
      "唁": 2875,
      "唄": 2876,
      "唆": 2877,
      "唇": 2878,
      "唐": 2879,
      "唑": 2880,
      "唔": 2881,
      "唖": 2882,
      "唤": 2883,
      "售": 2884,
      "唯": 2885,
      "唱": 2886,
      "唸": 2887,
      "唾": 2888,
      "啄": 2889,
      "商": 2890,
      "啉": 2891,
      "啊": 2892,
      "問": 2893,
      "啓": 2894,
      "啖": 2895,
      "啜": 2896,
      "啞": 2897,
      "啟": 2898,
      "啡": 2899,
      "啤": 2900,
      "啦": 2901,
      "啮": 2902,
      "啰": 2903,
      "啶": 2904,
      "啸": 2905,
      "啼": 2906,
      "啾": 2907,
      "喀": 2908,
      "喂": 2909,
      "喃": 2910,
      "善": 2911,
      "喆": 2912,
      "喇": 2913,
      "喉": 2914,
      "喊": 2915,
      "喋": 2916,
      "喔": 2917,
      "喘": 2918,
      "喙": 2919,
      "喚": 2920,
      "喜": 2921,
      "喝": 2922,
      "喧": 2923,
      "喩": 2924,
      "喪": 2925,
      "喫": 2926,
      "喬": 2927,
      "單": 2928,
      "喰": 2929,
      "喱": 2930,
      "喵": 2931,
      "営": 2932,
      "喷": 2933,
      "喻": 2934,
      "嗅": 2935,
      "嗎": 2936,
      "嗓": 2937,
      "嗚": 2938,
      "嗜": 2939,
      "嗟": 2940,
      "嗣": 2941,
      "嗪": 2942,
      "嗽": 2943,
      "嘅": 2944,
      "嘆": 2945,
      "嘉": 2946,
      "嘌": 2947,
      "嘎": 2948,
      "嘔": 2949,
      "嘗": 2950,
      "嘘": 2951,
      "嘛": 2952,
      "嘟": 2953,
      "嘢": 2954,
      "嘧": 2955,
      "嘩": 2956,
      "嘯": 2957,
      "嘱": 2958,
      "嘲": 2959,
      "嘴": 2960,
      "嘶": 2961,
      "嘻": 2962,
      "嘿": 2963,
      "噁": 2964,
      "噂": 2965,
      "噌": 2966,
      "噗": 2967,
      "噛": 2968,
      "噜": 2969,
      "器": 2970,
      "噩": 2971,
      "噪": 2972,
      "噬": 2973,
      "噴": 2974,
      "噶": 2975,
      "噸": 2976,
      "噹": 2977,
      "噺": 2978,
      "噻": 2979,
      "嚆": 2980,
      "嚇": 2981,
      "嚎": 2982,
      "嚕": 2983,
      "嚢": 2984,
      "嚣": 2985,
      "嚮": 2986,
      "嚴": 2987,
      "嚼": 2988,
      "囁": 2989,
      "囂": 2990,
      "囃": 2991,
      "囉": 2992,
      "囊": 2993,
      "囍": 2994,
      "囑": 2995,
      "囗": 2996,
      "囚": 2997,
      "四": 2998,
      "回": 2999,
      "因": 3000,
      "团": 3001,
      "団": 3002,
      "囤": 3003,
      "囧": 3004,
      "囪": 3005,
      "园": 3006,
      "囮": 3007,
      "困": 3008,
      "囱": 3009,
      "囲": 3010,
      "図": 3011,
      "围": 3012,
      "固": 3013,
      "国": 3014,
      "图": 3015,
      "圀": 3016,
      "圃": 3017,
      "圆": 3018,
      "圈": 3019,
      "國": 3020,
      "圍": 3021,
      "圏": 3022,
      "園": 3023,
      "圓": 3024,
      "圖": 3025,
      "團": 3026,
      "圜": 3027,
      "土": 3028,
      "圣": 3029,
      "圧": 3030,
      "在": 3031,
      "圩": 3032,
      "圪": 3033,
      "圭": 3034,
      "地": 3035,
      "圳": 3036,
      "场": 3037,
      "圻": 3038,
      "圾": 3039,
      "址": 3040,
      "坂": 3041,
      "均": 3042,
      "坊": 3043,
      "坍": 3044,
      "坎": 3045,
      "坏": 3046,
      "坐": 3047,
      "坑": 3048,
      "块": 3049,
      "坚": 3050,
      "坛": 3051,
      "坜": 3052,
      "坝": 3053,
      "坞": 3054,
      "坟": 3055,
      "坠": 3056,
      "坡": 3057,
      "坤": 3058,
      "坦": 3059,
      "坨": 3060,
      "坪": 3061,
      "坳": 3062,
      "坵": 3063,
      "坷": 3064,
      "垂": 3065,
      "垃": 3066,
      "垄": 3067,
      "垅": 3068,
      "型": 3069,
      "垌": 3070,
      "垒": 3071,
      "垓": 3072,
      "垛": 3073,
      "垟": 3074,
      "垠": 3075,
      "垢": 3076,
      "垣": 3077,
      "垦": 3078,
      "垩": 3079,
      "垫": 3080,
      "垭": 3081,
      "垮": 3082,
      "垸": 3083,
      "埃": 3084,
      "埋": 3085,
      "城": 3086,
      "埔": 3087,
      "埕": 3088,
      "埗": 3089,
      "埜": 3090,
      "域": 3091,
      "埠": 3092,
      "埡": 3093,
      "埤": 3094,
      "埭": 3095,
      "埴": 3096,
      "執": 3097,
      "培": 3098,
      "基": 3099,
      "埼": 3100,
      "堀": 3101,
      "堂": 3102,
      "堃": 3103,
      "堅": 3104,
      "堆": 3105,
      "堇": 3106,
      "堊": 3107,
      "堑": 3108,
      "堕": 3109,
      "堡": 3110,
      "堤": 3111,
      "堪": 3112,
      "堯": 3113,
      "堰": 3114,
      "報": 3115,
      "場": 3116,
      "堵": 3117,
      "堺": 3118,
      "塀": 3119,
      "塁": 3120,
      "塊": 3121,
      "塌": 3122,
      "塑": 3123,
      "塔": 3124,
      "塗": 3125,
      "塘": 3126,
      "塙": 3127,
      "塚": 3128,
      "塞": 3129,
      "塢": 3130,
      "塩": 3131,
      "填": 3132,
      "塬": 3133,
      "塭": 3134,
      "塵": 3135,
      "塹": 3136,
      "塾": 3137,
      "墀": 3138,
      "境": 3139,
      "墅": 3140,
      "墉": 3141,
      "墊": 3142,
      "墓": 3143,
      "増": 3144,
      "墘": 3145,
      "墙": 3146,
      "墜": 3147,
      "增": 3148,
      "墟": 3149,
      "墨": 3150,
      "墩": 3151,
      "墮": 3152,
      "墳": 3153,
      "墾": 3154,
      "壁": 3155,
      "壇": 3156,
      "壊": 3157,
      "壌": 3158,
      "壑": 3159,
      "壓": 3160,
      "壕": 3161,
      "壘": 3162,
      "壞": 3163,
      "壟": 3164,
      "壠": 3165,
      "壢": 3166,
      "壤": 3167,
      "壩": 3168,
      "士": 3169,
      "壬": 3170,
      "壮": 3171,
      "壯": 3172,
      "声": 3173,
      "壱": 3174,
      "売": 3175,
      "壳": 3176,
      "壶": 3177,
      "壷": 3178,
      "壹": 3179,
      "壺": 3180,
      "壽": 3181,
      "处": 3182,
      "备": 3183,
      "変": 3184,
      "复": 3185,
      "夏": 3186,
      "夔": 3187,
      "夕": 3188,
      "外": 3189,
      "夙": 3190,
      "多": 3191,
      "夜": 3192,
      "够": 3193,
      "夠": 3194,
      "夢": 3195,
      "夥": 3196,
      "大": 3197,
      "天": 3198,
      "太": 3199,
      "夫": 3200,
      "夭": 3201,
      "央": 3202,
      "夯": 3203,
      "失": 3204,
      "头": 3205,
      "夷": 3206,
      "夸": 3207,
      "夹": 3208,
      "夺": 3209,
      "夾": 3210,
      "奄": 3211,
      "奇": 3212,
      "奈": 3213,
      "奉": 3214,
      "奋": 3215,
      "奎": 3216,
      "奏": 3217,
      "奐": 3218,
      "契": 3219,
      "奔": 3220,
      "奕": 3221,
      "奖": 3222,
      "套": 3223,
      "奘": 3224,
      "奚": 3225,
      "奠": 3226,
      "奢": 3227,
      "奥": 3228,
      "奧": 3229,
      "奨": 3230,
      "奪": 3231,
      "奬": 3232,
      "奭": 3233,
      "奮": 3234,
      "女": 3235,
      "奴": 3236,
      "奶": 3237,
      "奸": 3238,
      "她": 3239,
      "好": 3240,
      "如": 3241,
      "妃": 3242,
      "妄": 3243,
      "妆": 3244,
      "妇": 3245,
      "妈": 3246,
      "妊": 3247,
      "妍": 3248,
      "妒": 3249,
      "妓": 3250,
      "妖": 3251,
      "妙": 3252,
      "妝": 3253,
      "妞": 3254,
      "妤": 3255,
      "妥": 3256,
      "妨": 3257,
      "妬": 3258,
      "妮": 3259,
      "妲": 3260,
      "妳": 3261,
      "妹": 3262,
      "妻": 3263,
      "妾": 3264,
      "姆": 3265,
      "姉": 3266,
      "姊": 3267,
      "始": 3268,
      "姍": 3269,
      "姐": 3270,
      "姑": 3271,
      "姓": 3272,
      "委": 3273,
      "姗": 3274,
      "姚": 3275,
      "姜": 3276,
      "姝": 3277,
      "姥": 3278,
      "姦": 3279,
      "姨": 3280,
      "姪": 3281,
      "姫": 3282,
      "姬": 3283,
      "姶": 3284,
      "姻": 3285,
      "姿": 3286,
      "威": 3287,
      "娃": 3288,
      "娄": 3289,
      "娅": 3290,
      "娇": 3291,
      "娑": 3292,
      "娘": 3293,
      "娛": 3294,
      "娜": 3295,
      "娟": 3296,
      "娠": 3297,
      "娣": 3298,
      "娥": 3299,
      "娩": 3300,
      "娯": 3301,
      "娱": 3302,
      "娴": 3303,
      "娶": 3304,
      "娼": 3305,
      "婁": 3306,
      "婆": 3307,
      "婉": 3308,
      "婕": 3309,
      "婚": 3310,
      "婢": 3311,
      "婦": 3312,
      "婧": 3313,
      "婪": 3314,
      "婭": 3315,
      "婴": 3316,
      "婶": 3317,
      "婷": 3318,
      "婺": 3319,
      "婿": 3320,
      "媒": 3321,
      "媚": 3322,
      "媛": 3323,
      "媲": 3324,
      "媳": 3325,
      "媽": 3326,
      "嫁": 3327,
      "嫂": 3328,
      "嫉": 3329,
      "嫌": 3330,
      "嫔": 3331,
      "嫖": 3332,
      "嫡": 3333,
      "嫣": 3334,
      "嫦": 3335,
      "嫩": 3336,
      "嫻": 3337,
      "嬅": 3338,
      "嬉": 3339,
      "嬌": 3340,
      "嬢": 3341,
      "嬤": 3342,
      "嬪": 3343,
      "嬬": 3344,
      "嬰": 3345,
      "嬴": 3346,
      "嬷": 3347,
      "嬸": 3348,
      "孀": 3349,
      "子": 3350,
      "孔": 3351,
      "孕": 3352,
      "孖": 3353,
      "字": 3354,
      "存": 3355,
      "孙": 3356,
      "孚": 3357,
      "孛": 3358,
      "孜": 3359,
      "孝": 3360,
      "孟": 3361,
      "孢": 3362,
      "季": 3363,
      "孤": 3364,
      "学": 3365,
      "孩": 3366,
      "孫": 3367,
      "孰": 3368,
      "孵": 3369,
      "學": 3370,
      "孺": 3371,
      "孽": 3372,
      "宁": 3373,
      "它": 3374,
      "宅": 3375,
      "宇": 3376,
      "守": 3377,
      "安": 3378,
      "宋": 3379,
      "完": 3380,
      "宍": 3381,
      "宏": 3382,
      "宓": 3383,
      "宕": 3384,
      "宗": 3385,
      "官": 3386,
      "宙": 3387,
      "定": 3388,
      "宛": 3389,
      "宜": 3390,
      "宝": 3391,
      "实": 3392,
      "実": 3393,
      "宠": 3394,
      "审": 3395,
      "客": 3396,
      "宣": 3397,
      "室": 3398,
      "宥": 3399,
      "宦": 3400,
      "宪": 3401,
      "宫": 3402,
      "宮": 3403,
      "宰": 3404,
      "害": 3405,
      "宴": 3406,
      "宵": 3407,
      "家": 3408,
      "宸": 3409,
      "容": 3410,
      "宽": 3411,
      "宾": 3412,
      "宿": 3413,
      "寂": 3414,
      "寄": 3415,
      "寅": 3416,
      "密": 3417,
      "寇": 3418,
      "富": 3419,
      "寐": 3420,
      "寒": 3421,
      "寓": 3422,
      "寔": 3423,
      "寛": 3424,
      "寝": 3425,
      "寞": 3426,
      "察": 3427,
      "寡": 3428,
      "寢": 3429,
      "寥": 3430,
      "實": 3431,
      "寧": 3432,
      "寨": 3433,
      "審": 3434,
      "寫": 3435,
      "寬": 3436,
      "寮": 3437,
      "寰": 3438,
      "寵": 3439,
      "寶": 3440,
      "寸": 3441,
      "对": 3442,
      "寺": 3443,
      "寻": 3444,
      "导": 3445,
      "対": 3446,
      "寿": 3447,
      "封": 3448,
      "専": 3449,
      "射": 3450,
      "将": 3451,
      "將": 3452,
      "專": 3453,
      "尉": 3454,
      "尊": 3455,
      "尋": 3456,
      "對": 3457,
      "導": 3458,
      "小": 3459,
      "少": 3460,
      "尔": 3461,
      "尕": 3462,
      "尖": 3463,
      "尘": 3464,
      "尙": 3465,
      "尚": 3466,
      "尝": 3467,
      "尤": 3468,
      "尧": 3469,
      "尬": 3470,
      "尭": 3471,
      "就": 3472,
      "尴": 3473,
      "尷": 3474,
      "尸": 3475,
      "尹": 3476,
      "尺": 3477,
      "尻": 3478,
      "尼": 3479,
      "尽": 3480,
      "尾": 3481,
      "尿": 3482,
      "局": 3483,
      "屁": 3484,
      "层": 3485,
      "居": 3486,
      "屆": 3487,
      "屈": 3488,
      "届": 3489,
      "屋": 3490,
      "屍": 3491,
      "屎": 3492,
      "屏": 3493,
      "屑": 3494,
      "展": 3495,
      "属": 3496,
      "屠": 3497,
      "屡": 3498,
      "屢": 3499,
      "層": 3500,
      "履": 3501,
      "屬": 3502,
      "屯": 3503,
      "山": 3504,
      "屹": 3505,
      "屿": 3506,
      "岁": 3507,
      "岂": 3508,
      "岌": 3509,
      "岐": 3510,
      "岑": 3511,
      "岔": 3512,
      "岖": 3513,
      "岗": 3514,
      "岘": 3515,
      "岙": 3516,
      "岚": 3517,
      "岛": 3518,
      "岡": 3519,
      "岩": 3520,
      "岫": 3521,
      "岬": 3522,
      "岭": 3523,
      "岱": 3524,
      "岳": 3525,
      "岷": 3526,
      "岸": 3527,
      "峁": 3528,
      "峇": 3529,
      "峒": 3530,
      "峙": 3531,
      "峠": 3532,
      "峡": 3533,
      "峦": 3534,
      "峨": 3535,
      "峪": 3536,
      "峭": 3537,
      "峯": 3538,
      "峰": 3539,
      "峴": 3540,
      "島": 3541,
      "峻": 3542,
      "峽": 3543,
      "崁": 3544,
      "崇": 3545,
      "崎": 3546,
      "崑": 3547,
      "崔": 3548,
      "崖": 3549,
      "崗": 3550,
      "崙": 3551,
      "崛": 3552,
      "崧": 3553,
      "崩": 3554,
      "崭": 3555,
      "崴": 3556,
      "嵇": 3557,
      "嵊": 3558,
      "嵋": 3559,
      "嵌": 3560,
      "嵐": 3561,
      "嵜": 3562,
      "嵩": 3563,
      "嵯": 3564,
      "嶄": 3565,
      "嶇": 3566,
      "嶋": 3567,
      "嶠": 3568,
      "嶷": 3569,
      "嶺": 3570,
      "嶼": 3571,
      "嶽": 3572,
      "巅": 3573,
      "巌": 3574,
      "巍": 3575,
      "巒": 3576,
      "巔": 3577,
      "巖": 3578,
      "川": 3579,
      "州": 3580,
      "巡": 3581,
      "巢": 3582,
      "巣": 3583,
      "工": 3584,
      "左": 3585,
      "巧": 3586,
      "巨": 3587,
      "巩": 3588,
      "巫": 3589,
      "差": 3590,
      "己": 3591,
      "已": 3592,
      "巳": 3593,
      "巴": 3594,
      "巷": 3595,
      "巻": 3596,
      "巽": 3597,
      "巾": 3598,
      "币": 3599,
      "市": 3600,
      "布": 3601,
      "帅": 3602,
      "帆": 3603,
      "师": 3604,
      "希": 3605,
      "帐": 3606,
      "帑": 3607,
      "帕": 3608,
      "帖": 3609,
      "帘": 3610,
      "帚": 3611,
      "帛": 3612,
      "帜": 3613,
      "帝": 3614,
      "帥": 3615,
      "带": 3616,
      "帧": 3617,
      "師": 3618,
      "席": 3619,
      "帮": 3620,
      "帯": 3621,
      "帰": 3622,
      "帳": 3623,
      "帶": 3624,
      "帷": 3625,
      "常": 3626,
      "帽": 3627,
      "幀": 3628,
      "幂": 3629,
      "幅": 3630,
      "幇": 3631,
      "幌": 3632,
      "幔": 3633,
      "幕": 3634,
      "幟": 3635,
      "幡": 3636,
      "幢": 3637,
      "幣": 3638,
      "幫": 3639,
      "干": 3640,
      "平": 3641,
      "年": 3642,
      "并": 3643,
      "幸": 3644,
      "幹": 3645,
      "幺": 3646,
      "幻": 3647,
      "幼": 3648,
      "幽": 3649,
      "幾": 3650,
      "广": 3651,
      "庁": 3652,
      "広": 3653,
      "庄": 3654,
      "庆": 3655,
      "庇": 3656,
      "床": 3657,
      "序": 3658,
      "庐": 3659,
      "库": 3660,
      "应": 3661,
      "底": 3662,
      "店": 3663,
      "庙": 3664,
      "庚": 3665,
      "府": 3666,
      "庞": 3667,
      "废": 3668,
      "庠": 3669,
      "度": 3670,
      "座": 3671,
      "庫": 3672,
      "庭": 3673,
      "庵": 3674,
      "庶": 3675,
      "康": 3676,
      "庸": 3677,
      "庾": 3678,
      "廁": 3679,
      "廂": 3680,
      "廃": 3681,
      "廈": 3682,
      "廉": 3683,
      "廊": 3684,
      "廍": 3685,
      "廓": 3686,
      "廖": 3687,
      "廚": 3688,
      "廟": 3689,
      "廠": 3690,
      "廢": 3691,
      "廣": 3692,
      "廬": 3693,
      "廳": 3694,
      "延": 3695,
      "廷": 3696,
      "建": 3697,
      "廻": 3698,
      "廼": 3699,
      "廿": 3700,
      "开": 3701,
      "弁": 3702,
      "异": 3703,
      "弃": 3704,
      "弄": 3705,
      "弈": 3706,
      "弊": 3707,
      "弋": 3708,
      "式": 3709,
      "弐": 3710,
      "弑": 3711,
      "弒": 3712,
      "弓": 3713,
      "弔": 3714,
      "引": 3715,
      "弗": 3716,
      "弘": 3717,
      "弛": 3718,
      "弟": 3719,
      "张": 3720,
      "弥": 3721,
      "弦": 3722,
      "弧": 3723,
      "弩": 3724,
      "弭": 3725,
      "弯": 3726,
      "弱": 3727,
      "張": 3728,
      "強": 3729,
      "弹": 3730,
      "强": 3731,
      "弼": 3732,
      "弾": 3733,
      "彅": 3734,
      "彈": 3735,
      "彊": 3736,
      "彌": 3737,
      "彎": 3738,
      "归": 3739,
      "当": 3740,
      "录": 3741,
      "彗": 3742,
      "彙": 3743,
      "彝": 3744,
      "形": 3745,
      "彤": 3746,
      "彥": 3747,
      "彦": 3748,
      "彧": 3749,
      "彩": 3750,
      "彪": 3751,
      "彫": 3752,
      "彬": 3753,
      "彭": 3754,
      "彰": 3755,
      "影": 3756,
      "彷": 3757,
      "役": 3758,
      "彻": 3759,
      "彼": 3760,
      "彿": 3761,
      "往": 3762,
      "征": 3763,
      "径": 3764,
      "待": 3765,
      "徇": 3766,
      "很": 3767,
      "徊": 3768,
      "律": 3769,
      "後": 3770,
      "徐": 3771,
      "徑": 3772,
      "徒": 3773,
      "従": 3774,
      "得": 3775,
      "徘": 3776,
      "徙": 3777,
      "從": 3778,
      "徠": 3779,
      "御": 3780,
      "徨": 3781,
      "復": 3782,
      "循": 3783,
      "徭": 3784,
      "微": 3785,
      "徳": 3786,
      "徴": 3787,
      "徵": 3788,
      "德": 3789,
      "徹": 3790,
      "徽": 3791,
      "心": 3792,
      "必": 3793,
      "忆": 3794,
      "忌": 3795,
      "忍": 3796,
      "忏": 3797,
      "忒": 3798,
      "志": 3799,
      "忘": 3800,
      "忙": 3801,
      "応": 3802,
      "忠": 3803,
      "忤": 3804,
      "忧": 3805,
      "快": 3806,
      "忱": 3807,
      "念": 3808,
      "忻": 3809,
      "忽": 3810,
      "忿": 3811,
      "怀": 3812,
      "态": 3813,
      "怎": 3814,
      "怒": 3815,
      "怕": 3816,
      "怖": 3817,
      "怛": 3818,
      "怜": 3819,
      "思": 3820,
      "怠": 3821,
      "怡": 3822,
      "急": 3823,
      "性": 3824,
      "怨": 3825,
      "怪": 3826,
      "怯": 3827,
      "总": 3828,
      "恂": 3829,
      "恃": 3830,
      "恆": 3831,
      "恋": 3832,
      "恍": 3833,
      "恐": 3834,
      "恒": 3835,
      "恕": 3836,
      "恙": 3837,
      "恚": 3838,
      "恢": 3839,
      "恣": 3840,
      "恤": 3841,
      "恥": 3842,
      "恨": 3843,
      "恩": 3844,
      "恪": 3845,
      "恬": 3846,
      "恭": 3847,
      "息": 3848,
      "恰": 3849,
      "恳": 3850,
      "恵": 3851,
      "恶": 3852,
      "恺": 3853,
      "恼": 3854,
      "恽": 3855,
      "恿": 3856,
      "悄": 3857,
      "悅": 3858,
      "悉": 3859,
      "悌": 3860,
      "悍": 3861,
      "悔": 3862,
      "悖": 3863,
      "悚": 3864,
      "悟": 3865,
      "悠": 3866,
      "患": 3867,
      "悦": 3868,
      "您": 3869,
      "悩": 3870,
      "悪": 3871,
      "悬": 3872,
      "悯": 3873,
      "悲": 3874,
      "悶": 3875,
      "悸": 3876,
      "悼": 3877,
      "情": 3878,
      "惇": 3879,
      "惊": 3880,
      "惑": 3881,
      "惕": 3882,
      "惚": 3883,
      "惛": 3884,
      "惜": 3885,
      "惟": 3886,
      "惠": 3887,
      "惡": 3888,
      "惣": 3889,
      "惧": 3890,
      "惨": 3891,
      "惩": 3892,
      "惮": 3893,
      "惯": 3894,
      "惰": 3895,
      "惱": 3896,
      "惲": 3897,
      "想": 3898,
      "惶": 3899,
      "惹": 3900,
      "惺": 3901,
      "愁": 3902,
      "愈": 3903,
      "愉": 3904,
      "愍": 3905,
      "意": 3906,
      "愔": 3907,
      "愕": 3908,
      "愚": 3909,
      "愛": 3910,
      "感": 3911,
      "愤": 3912,
      "愧": 3913,
      "愫": 3914,
      "愷": 3915,
      "愼": 3916,
      "愿": 3917,
      "慄": 3918,
      "慈": 3919,
      "態": 3920,
      "慌": 3921,
      "慎": 3922,
      "慑": 3923,
      "慕": 3924,
      "慘": 3925,
      "慚": 3926,
      "慟": 3927,
      "慢": 3928,
      "慣": 3929,
      "慧": 3930,
      "慨": 3931,
      "慮": 3932,
      "慰": 3933,
      "慳": 3934,
      "慶": 3935,
      "慷": 3936,
      "慾": 3937,
      "憂": 3938,
      "憍": 3939,
      "憎": 3940,
      "憐": 3941,
      "憑": 3942,
      "憚": 3943,
      "憤": 3944,
      "憧": 3945,
      "憨": 3946,
      "憩": 3947,
      "憫": 3948,
      "憬": 3949,
      "憲": 3950,
      "憶": 3951,
      "憾": 3952,
      "懂": 3953,
      "懇": 3954,
      "懈": 3955,
      "應": 3956,
      "懋": 3957,
      "懐": 3958,
      "懒": 3959,
      "懦": 3960,
      "懲": 3961,
      "懶": 3962,
      "懷": 3963,
      "懸": 3964,
      "懺": 3965,
      "懼": 3966,
      "懿": 3967,
      "戀": 3968,
      "戈": 3969,
      "戊": 3970,
      "戌": 3971,
      "戍": 3972,
      "戎": 3973,
      "戏": 3974,
      "成": 3975,
      "我": 3976,
      "戒": 3977,
      "或": 3978,
      "战": 3979,
      "戚": 3980,
      "戛": 3981,
      "戟": 3982,
      "戡": 3983,
      "戦": 3984,
      "截": 3985,
      "戮": 3986,
      "戯": 3987,
      "戰": 3988,
      "戱": 3989,
      "戲": 3990,
      "戳": 3991,
      "戴": 3992,
      "戶": 3993,
      "户": 3994,
      "戸": 3995,
      "戻": 3996,
      "戾": 3997,
      "房": 3998,
      "所": 3999,
      "扁": 4000,
      "扇": 4001,
      "扈": 4002,
      "扉": 4003,
      "手": 4004,
      "才": 4005,
      "扎": 4006,
      "扑": 4007,
      "扒": 4008,
      "打": 4009,
      "扔": 4010,
      "払": 4011,
      "托": 4012,
      "扛": 4013,
      "扣": 4014,
      "执": 4015,
      "扩": 4016,
      "扫": 4017,
      "扬": 4018,
      "扭": 4019,
      "扮": 4020,
      "扯": 4021,
      "扰": 4022,
      "扱": 4023,
      "扳": 4024,
      "扶": 4025,
      "批": 4026,
      "扼": 4027,
      "找": 4028,
      "承": 4029,
      "技": 4030,
      "抄": 4031,
      "抉": 4032,
      "把": 4033,
      "抑": 4034,
      "抒": 4035,
      "抓": 4036,
      "投": 4037,
      "抖": 4038,
      "抗": 4039,
      "折": 4040,
      "抚": 4041,
      "抛": 4042,
      "抜": 4043,
      "択": 4044,
      "抢": 4045,
      "护": 4046,
      "报": 4047,
      "抨": 4048,
      "披": 4049,
      "抬": 4050,
      "抱": 4051,
      "抵": 4052,
      "抹": 4053,
      "押": 4054,
      "抽": 4055,
      "拂": 4056,
      "担": 4057,
      "拆": 4058,
      "拇": 4059,
      "拉": 4060,
      "拋": 4061,
      "拌": 4062,
      "拍": 4063,
      "拏": 4064,
      "拐": 4065,
      "拒": 4066,
      "拓": 4067,
      "拔": 4068,
      "拖": 4069,
      "拗": 4070,
      "拘": 4071,
      "拙": 4072,
      "拚": 4073,
      "招": 4074,
      "拜": 4075,
      "拝": 4076,
      "拟": 4077,
      "拠": 4078,
      "拡": 4079,
      "拢": 4080,
      "拣": 4081,
      "拥": 4082,
      "拦": 4083,
      "拨": 4084,
      "择": 4085,
      "括": 4086,
      "拭": 4087,
      "拮": 4088,
      "拯": 4089,
      "拱": 4090,
      "拳": 4091,
      "拶": 4092,
      "拷": 4093,
      "拼": 4094,
      "拾": 4095,
      "拿": 4096,
      "持": 4097,
      "挂": 4098,
      "指": 4099,
      "按": 4100,
      "挑": 4101,
      "挖": 4102,
      "挙": 4103,
      "挚": 4104,
      "挛": 4105,
      "挝": 4106,
      "挞": 4107,
      "挟": 4108,
      "挠": 4109,
      "挡": 4110,
      "挣": 4111,
      "挤": 4112,
      "挥": 4113,
      "挨": 4114,
      "挪": 4115,
      "挫": 4116,
      "振": 4117,
      "挹": 4118,
      "挺": 4119,
      "挽": 4120,
      "挾": 4121,
      "挿": 4122,
      "捆": 4123,
      "捉": 4124,
      "捌": 4125,
      "捍": 4126,
      "捏": 4127,
      "捐": 4128,
      "捕": 4129,
      "捗": 4130,
      "捜": 4131,
      "捞": 4132,
      "损": 4133,
      "捡": 4134,
      "换": 4135,
      "捣": 4136,
      "捧": 4137,
      "捨": 4138,
      "捩": 4139,
      "据": 4140,
      "捲": 4141,
      "捷": 4142,
      "捺": 4143,
      "捻": 4144,
      "掀": 4145,
      "掃": 4146,
      "授": 4147,
      "掉": 4148,
      "掌": 4149,
      "掏": 4150,
      "排": 4151,
      "掖": 4152,
      "掘": 4153,
      "掙": 4154,
      "掛": 4155,
      "掟": 4156,
      "掠": 4157,
      "採": 4158,
      "探": 4159,
      "掣": 4160,
      "接": 4161,
      "控": 4162,
      "推": 4163,
      "掩": 4164,
      "措": 4165,
      "掬": 4166,
      "掲": 4167,
      "掳": 4168,
      "掴": 4169,
      "掷": 4170,
      "掸": 4171,
      "掺": 4172,
      "掻": 4173,
      "掾": 4174,
      "揀": 4175,
      "揃": 4176,
      "揄": 4177,
      "揆": 4178,
      "揉": 4179,
      "描": 4180,
      "提": 4181,
      "插": 4182,
      "揖": 4183,
      "揚": 4184,
      "換": 4185,
      "握": 4186,
      "揣": 4187,
      "揪": 4188,
      "揭": 4189,
      "揮": 4190,
      "援": 4191,
      "揶": 4192,
      "揺": 4193,
      "揽": 4194,
      "搁": 4195,
      "搅": 4196,
      "損": 4197,
      "搏": 4198,
      "搖": 4199,
      "搗": 4200,
      "搜": 4201,
      "搞": 4202,
      "搬": 4203,
      "搭": 4204,
      "搶": 4205,
      "携": 4206,
      "搾": 4207,
      "摂": 4208,
      "摄": 4209,
      "摆": 4210,
      "摇": 4211,
      "摊": 4212,
      "摒": 4213,
      "摔": 4214,
      "摘": 4215,
      "摠": 4216,
      "摧": 4217,
      "摩": 4218,
      "摯": 4219,
      "摸": 4220,
      "摹": 4221,
      "摺": 4222,
      "摻": 4223,
      "撃": 4224,
      "撇": 4225,
      "撈": 4226,
      "撐": 4227,
      "撑": 4228,
      "撒": 4229,
      "撓": 4230,
      "撕": 4231,
      "撞": 4232,
      "撣": 4233,
      "撤": 4234,
      "撥": 4235,
      "撫": 4236,
      "播": 4237,
      "撮": 4238,
      "撰": 4239,
      "撲": 4240,
      "撹": 4241,
      "撻": 4242,
      "撼": 4243,
      "撿": 4244,
      "擁": 4245,
      "擂": 4246,
      "擄": 4247,
      "擅": 4248,
      "擇": 4249,
      "擊": 4250,
      "擋": 4251,
      "操": 4252,
      "擎": 4253,
      "擒": 4254,
      "擔": 4255,
      "擘": 4256,
      "據": 4257,
      "擠": 4258,
      "擢": 4259,
      "擦": 4260,
      "擧": 4261,
      "擬": 4262,
      "擱": 4263,
      "擲": 4264,
      "擴": 4265,
      "擺": 4266,
      "擾": 4267,
      "攀": 4268,
      "攏": 4269,
      "攔": 4270,
      "攘": 4271,
      "攜": 4272,
      "攝": 4273,
      "攣": 4274,
      "攤": 4275,
      "攪": 4276,
      "攫": 4277,
      "攬": 4278,
      "支": 4279,
      "收": 4280,
      "攸": 4281,
      "改": 4282,
      "攻": 4283,
      "放": 4284,
      "政": 4285,
      "故": 4286,
      "效": 4287,
      "敌": 4288,
      "敍": 4289,
      "敎": 4290,
      "敏": 4291,
      "救": 4292,
      "敕": 4293,
      "敖": 4294,
      "敗": 4295,
      "敘": 4296,
      "教": 4297,
      "敛": 4298,
      "敝": 4299,
      "敞": 4300,
      "敢": 4301,
      "散": 4302,
      "敦": 4303,
      "敬": 4304,
      "数": 4305,
      "敲": 4306,
      "整": 4307,
      "敵": 4308,
      "敷": 4309,
      "數": 4310,
      "斂": 4311,
      "斃": 4312,
      "文": 4313,
      "斉": 4314,
      "斋": 4315,
      "斌": 4316,
      "斎": 4317,
      "斐": 4318,
      "斑": 4319,
      "斗": 4320,
      "料": 4321,
      "斛": 4322,
      "斜": 4323,
      "斟": 4324,
      "斡": 4325,
      "斤": 4326,
      "斥": 4327,
      "斧": 4328,
      "斩": 4329,
      "斬": 4330,
      "断": 4331,
      "斯": 4332,
      "新": 4333,
      "斷": 4334,
      "方": 4335,
      "於": 4336,
      "施": 4337,
      "旁": 4338,
      "旃": 4339,
      "旅": 4340,
      "旋": 4341,
      "旌": 4342,
      "族": 4343,
      "旗": 4344,
      "旛": 4345,
      "无": 4346,
      "既": 4347,
      "日": 4348,
      "旦": 4349,
      "旧": 4350,
      "旨": 4351,
      "早": 4352,
      "旬": 4353,
      "旭": 4354,
      "旱": 4355,
      "时": 4356,
      "旷": 4357,
      "旺": 4358,
      "旻": 4359,
      "旼": 4360,
      "昀": 4361,
      "昂": 4362,
      "昆": 4363,
      "昇": 4364,
      "昉": 4365,
      "昊": 4366,
      "昌": 4367,
      "明": 4368,
      "昏": 4369,
      "易": 4370,
      "昔": 4371,
      "昕": 4372,
      "昙": 4373,
      "星": 4374,
      "映": 4375,
      "春": 4376,
      "昧": 4377,
      "昨": 4378,
      "昭": 4379,
      "是": 4380,
      "昱": 4381,
      "昴": 4382,
      "昵": 4383,
      "昶": 4384,
      "昼": 4385,
      "显": 4386,
      "晁": 4387,
      "時": 4388,
      "晃": 4389,
      "晉": 4390,
      "晋": 4391,
      "晏": 4392,
      "晒": 4393,
      "晓": 4394,
      "晔": 4395,
      "晕": 4396,
      "晖": 4397,
      "晗": 4398,
      "晚": 4399,
      "晝": 4400,
      "晞": 4401,
      "晟": 4402,
      "晤": 4403,
      "晦": 4404,
      "晨": 4405,
      "晩": 4406,
      "普": 4407,
      "景": 4408,
      "晰": 4409,
      "晴": 4410,
      "晶": 4411,
      "晷": 4412,
      "智": 4413,
      "暁": 4414,
      "暂": 4415,
      "暄": 4416,
      "暇": 4417,
      "暈": 4418,
      "暉": 4419,
      "暎": 4420,
      "暐": 4421,
      "暑": 4422,
      "暖": 4423,
      "暗": 4424,
      "暠": 4425,
      "暢": 4426,
      "暦": 4427,
      "暧": 4428,
      "暨": 4429,
      "暫": 4430,
      "暮": 4431,
      "暱": 4432,
      "暴": 4433,
      "暹": 4434,
      "曄": 4435,
      "曆": 4436,
      "曇": 4437,
      "曉": 4438,
      "曖": 4439,
      "曙": 4440,
      "曜": 4441,
      "曝": 4442,
      "曠": 4443,
      "曦": 4444,
      "曬": 4445,
      "曰": 4446,
      "曲": 4447,
      "曳": 4448,
      "更": 4449,
      "曷": 4450,
      "書": 4451,
      "曹": 4452,
      "曺": 4453,
      "曼": 4454,
      "曽": 4455,
      "曾": 4456,
      "替": 4457,
      "最": 4458,
      "會": 4459,
      "月": 4460,
      "有": 4461,
      "朋": 4462,
      "服": 4463,
      "朐": 4464,
      "朔": 4465,
      "朕": 4466,
      "朗": 4467,
      "望": 4468,
      "朝": 4469,
      "期": 4470,
      "朦": 4471,
      "朧": 4472,
      "木": 4473,
      "未": 4474,
      "末": 4475,
      "本": 4476,
      "札": 4477,
      "术": 4478,
      "朱": 4479,
      "朴": 4480,
      "朵": 4481,
      "机": 4482,
      "朽": 4483,
      "杀": 4484,
      "杂": 4485,
      "权": 4486,
      "杆": 4487,
      "杉": 4488,
      "李": 4489,
      "杏": 4490,
      "材": 4491,
      "村": 4492,
      "杓": 4493,
      "杖": 4494,
      "杜": 4495,
      "杞": 4496,
      "束": 4497,
      "杠": 4498,
      "条": 4499,
      "杣": 4500,
      "来": 4501,
      "杨": 4502,
      "杭": 4503,
      "杯": 4504,
      "杰": 4505,
      "東": 4506,
      "杲": 4507,
      "杵": 4508,
      "杷": 4509,
      "杼": 4510,
      "松": 4511,
      "板": 4512,
      "极": 4513,
      "构": 4514,
      "枇": 4515,
      "枉": 4516,
      "枋": 4517,
      "析": 4518,
      "枕": 4519,
      "林": 4520,
      "枚": 4521,
      "果": 4522,
      "枝": 4523,
      "枠": 4524,
      "枡": 4525,
      "枢": 4526,
      "枣": 4527,
      "枪": 4528,
      "枫": 4529,
      "枭": 4530,
      "枯": 4531,
      "架": 4532,
      "枷": 4533,
      "柄": 4534,
      "柊": 4535,
      "柏": 4536,
      "某": 4537,
      "柑": 4538,
      "染": 4539,
      "柔": 4540,
      "柘": 4541,
      "柚": 4542,
      "柜": 4543,
      "柝": 4544,
      "柞": 4545,
      "柠": 4546,
      "查": 4547,
      "柩": 4548,
      "柬": 4549,
      "柯": 4550,
      "柱": 4551,
      "柳": 4552,
      "柴": 4553,
      "柵": 4554,
      "査": 4555,
      "柾": 4556,
      "柿": 4557,
      "栃": 4558,
      "栄": 4559,
      "栅": 4560,
      "标": 4561,
      "栈": 4562,
      "栉": 4563,
      "栋": 4564,
      "栎": 4565,
      "栏": 4566,
      "树": 4567,
      "栓": 4568,
      "栖": 4569,
      "栗": 4570,
      "栞": 4571,
      "校": 4572,
      "栢": 4573,
      "栩": 4574,
      "株": 4575,
      "栱": 4576,
      "样": 4577,
      "核": 4578,
      "根": 4579,
      "格": 4580,
      "栽": 4581,
      "栾": 4582,
      "桀": 4583,
      "桁": 4584,
      "桂": 4585,
      "桃": 4586,
      "桅": 4587,
      "框": 4588,
      "案": 4589,
      "桌": 4590,
      "桐": 4591,
      "桑": 4592,
      "桓": 4593,
      "桔": 4594,
      "桜": 4595,
      "桝": 4596,
      "桟": 4597,
      "桢": 4598,
      "档": 4599,
      "桥": 4600,
      "桦": 4601,
      "桧": 4602,
      "桨": 4603,
      "桩": 4604,
      "桶": 4605,
      "桿": 4606,
      "梁": 4607,
      "梅": 4608,
      "梓": 4609,
      "梗": 4610,
      "條": 4611,
      "梟": 4612,
      "梢": 4613,
      "梦": 4614,
      "梧": 4615,
      "梨": 4616,
      "梭": 4617,
      "梯": 4618,
      "械": 4619,
      "梱": 4620,
      "梳": 4621,
      "梵": 4622,
      "梶": 4623,
      "检": 4624,
      "棄": 4625,
      "棉": 4626,
      "棋": 4627,
      "棍": 4628,
      "棒": 4629,
      "棕": 4630,
      "棗": 4631,
      "棘": 4632,
      "棚": 4633,
      "棟": 4634,
      "棠": 4635,
      "棣": 4636,
      "棧": 4637,
      "棨": 4638,
      "森": 4639,
      "棱": 4640,
      "棲": 4641,
      "棵": 4642,
      "棹": 4643,
      "棺": 4644,
      "棻": 4645,
      "椀": 4646,
      "椅": 4647,
      "椋": 4648,
      "植": 4649,
      "椎": 4650,
      "椒": 4651,
      "椙": 4652,
      "検": 4653,
      "椭": 4654,
      "椰": 4655,
      "椴": 4656,
      "椽": 4657,
      "椿": 4658,
      "楊": 4659,
      "楓": 4660,
      "楔": 4661,
      "楕": 4662,
      "楚": 4663,
      "楞": 4664,
      "楠": 4665,
      "楡": 4666,
      "楢": 4667,
      "楣": 4668,
      "楨": 4669,
      "楫": 4670,
      "業": 4671,
      "楯": 4672,
      "極": 4673,
      "楷": 4674,
      "楸": 4675,
      "楹": 4676,
      "楼": 4677,
      "楽": 4678,
      "概": 4679,
      "榄": 4680,
      "榆": 4681,
      "榈": 4682,
      "榊": 4683,
      "榎": 4684,
      "榔": 4685,
      "榕": 4686,
      "榘": 4687,
      "榛": 4688,
      "榜": 4689,
      "榨": 4690,
      "榭": 4691,
      "榮": 4692,
      "榴": 4693,
      "榷": 4694,
      "榻": 4695,
      "槃": 4696,
      "槇": 4697,
      "構": 4698,
      "槌": 4699,
      "槍": 4700,
      "槎": 4701,
      "槐": 4702,
      "槓": 4703,
      "様": 4704,
      "槙": 4705,
      "槛": 4706,
      "槟": 4707,
      "槭": 4708,
      "槳": 4709,
      "槻": 4710,
      "槽": 4711,
      "槿": 4712,
      "樁": 4713,
      "樂": 4714,
      "樅": 4715,
      "樊": 4716,
      "樋": 4717,
      "樑": 4718,
      "樓": 4719,
      "標": 4720,
      "樞": 4721,
      "樟": 4722,
      "模": 4723,
      "樣": 4724,
      "権": 4725,
      "横": 4726,
      "樫": 4727,
      "樱": 4728,
      "樵": 4729,
      "樸": 4730,
      "樹": 4731,
      "樺": 4732,
      "樽": 4733,
      "橄": 4734,
      "橇": 4735,
      "橈": 4736,
      "橋": 4737,
      "橐": 4738,
      "橘": 4739,
      "橙": 4740,
      "機": 4741,
      "橡": 4742,
      "橢": 4743,
      "橫": 4744,
      "橿": 4745,
      "檀": 4746,
      "檄": 4747,
      "檎": 4748,
      "檐": 4749,
      "檔": 4750,
      "檗": 4751,
      "檜": 4752,
      "檢": 4753,
      "檬": 4754,
      "檯": 4755,
      "檳": 4756,
      "檸": 4757,
      "檻": 4758,
      "櫂": 4759,
      "櫃": 4760,
      "櫓": 4761,
      "櫚": 4762,
      "櫛": 4763,
      "櫟": 4764,
      "櫥": 4765,
      "櫻": 4766,
      "欄": 4767,
      "欅": 4768,
      "權": 4769,
      "欒": 4770,
      "欖": 4771,
      "欠": 4772,
      "次": 4773,
      "欢": 4774,
      "欣": 4775,
      "欧": 4776,
      "欲": 4777,
      "欺": 4778,
      "欽": 4779,
      "款": 4780,
      "歆": 4781,
      "歇": 4782,
      "歉": 4783,
      "歌": 4784,
      "歎": 4785,
      "歐": 4786,
      "歓": 4787,
      "歙": 4788,
      "歡": 4789,
      "止": 4790,
      "正": 4791,
      "此": 4792,
      "步": 4793,
      "武": 4794,
      "歧": 4795,
      "歩": 4796,
      "歪": 4797,
      "歯": 4798,
      "歲": 4799,
      "歳": 4800,
      "歴": 4801,
      "歷": 4802,
      "歸": 4803,
      "歹": 4804,
      "死": 4805,
      "歼": 4806,
      "歿": 4807,
      "殁": 4808,
      "殃": 4809,
      "殆": 4810,
      "殇": 4811,
      "殉": 4812,
      "殊": 4813,
      "残": 4814,
      "殖": 4815,
      "殘": 4816,
      "殡": 4817,
      "殤": 4818,
      "殭": 4819,
      "殯": 4820,
      "殲": 4821,
      "殴": 4822,
      "段": 4823,
      "殷": 4824,
      "殺": 4825,
      "殻": 4826,
      "殼": 4827,
      "殿": 4828,
      "毀": 4829,
      "毁": 4830,
      "毅": 4831,
      "毆": 4832,
      "毋": 4833,
      "母": 4834,
      "毎": 4835,
      "每": 4836,
      "毒": 4837,
      "毓": 4838,
      "比": 4839,
      "毕": 4840,
      "毗": 4841,
      "毘": 4842,
      "毙": 4843,
      "毛": 4844,
      "毫": 4845,
      "毬": 4846,
      "毯": 4847,
      "氈": 4848,
      "氏": 4849,
      "氐": 4850,
      "民": 4851,
      "氓": 4852,
      "气": 4853,
      "気": 4854,
      "氙": 4855,
      "氛": 4856,
      "氟": 4857,
      "氢": 4858,
      "氣": 4859,
      "氦": 4860,
      "氧": 4861,
      "氨": 4862,
      "氫": 4863,
      "氮": 4864,
      "氯": 4865,
      "氰": 4866,
      "水": 4867,
      "氵": 4868,
      "氷": 4869,
      "永": 4870,
      "氹": 4871,
      "氾": 4872,
      "汀": 4873,
      "汁": 4874,
      "求": 4875,
      "汇": 4876,
      "汉": 4877,
      "汎": 4878,
      "汐": 4879,
      "汕": 4880,
      "汗": 4881,
      "汙": 4882,
      "汚": 4883,
      "汛": 4884,
      "汜": 4885,
      "汝": 4886,
      "汞": 4887,
      "江": 4888,
      "池": 4889,
      "污": 4890,
      "汤": 4891,
      "汨": 4892,
      "汪": 4893,
      "汰": 4894,
      "汲": 4895,
      "汴": 4896,
      "汶": 4897,
      "決": 4898,
      "汽": 4899,
      "汾": 4900,
      "沁": 4901,
      "沂": 4902,
      "沃": 4903,
      "沅": 4904,
      "沆": 4905,
      "沈": 4906,
      "沉": 4907,
      "沌": 4908,
      "沐": 4909,
      "沒": 4910,
      "沓": 4911,
      "沔": 4912,
      "沖": 4913,
      "沙": 4914,
      "沛": 4915,
      "沟": 4916,
      "没": 4917,
      "沢": 4918,
      "沥": 4919,
      "沦": 4920,
      "沧": 4921,
      "沪": 4922,
      "沫": 4923,
      "沭": 4924,
      "沮": 4925,
      "沱": 4926,
      "河": 4927,
      "沸": 4928,
      "油": 4929,
      "治": 4930,
      "沼": 4931,
      "沽": 4932,
      "沾": 4933,
      "沿": 4934,
      "況": 4935,
      "泄": 4936,
      "泉": 4937,
      "泊": 4938,
      "泌": 4939,
      "泓": 4940,
      "法": 4941,
      "泗": 4942,
      "泛": 4943,
      "泠": 4944,
      "泡": 4945,
      "波": 4946,
      "泣": 4947,
      "泥": 4948,
      "注": 4949,
      "泪": 4950,
      "泮": 4951,
      "泰": 4952,
      "泳": 4953,
      "泵": 4954,
      "泷": 4955,
      "泸": 4956,
      "泻": 4957,
      "泼": 4958,
      "泽": 4959,
      "泾": 4960,
      "洁": 4961,
      "洄": 4962,
      "洋": 4963,
      "洒": 4964,
      "洗": 4965,
      "洙": 4966,
      "洛": 4967,
      "洞": 4968,
      "津": 4969,
      "洩": 4970,
      "洪": 4971,
      "洮": 4972,
      "洱": 4973,
      "洲": 4974,
      "洵": 4975,
      "洸": 4976,
      "洹": 4977,
      "活": 4978,
      "洼": 4979,
      "洽": 4980,
      "派": 4981,
      "流": 4982,
      "浄": 4983,
      "浅": 4984,
      "浆": 4985,
      "浇": 4986,
      "浊": 4987,
      "测": 4988,
      "济": 4989,
      "浏": 4990,
      "浑": 4991,
      "浒": 4992,
      "浓": 4993,
      "浔": 4994,
      "浙": 4995,
      "浚": 4996,
      "浜": 4997,
      "浣": 4998,
      "浦": 4999,
      "浩": 5000,
      "浪": 5001,
      "浬": 5002,
      "浮": 5003,
      "浴": 5004,
      "海": 5005,
      "浸": 5006,
      "涂": 5007,
      "涅": 5008,
      "涇": 5009,
      "消": 5010,
      "涉": 5011,
      "涌": 5012,
      "涎": 5013,
      "涓": 5014,
      "涕": 5015,
      "涙": 5016,
      "涛": 5017,
      "涝": 5018,
      "涟": 5019,
      "涡": 5020,
      "涤": 5021,
      "润": 5022,
      "涧": 5023,
      "涨": 5024,
      "涩": 5025,
      "涪": 5026,
      "涯": 5027,
      "液": 5028,
      "涵": 5029,
      "涸": 5030,
      "涼": 5031,
      "涿": 5032,
      "淀": 5033,
      "淄": 5034,
      "淅": 5035,
      "淆": 5036,
      "淇": 5037,
      "淋": 5038,
      "淑": 5039,
      "淖": 5040,
      "淘": 5041,
      "淚": 5042,
      "淝": 5043,
      "淞": 5044,
      "淡": 5045,
      "淤": 5046,
      "淦": 5047,
      "淨": 5048,
      "淪": 5049,
      "淫": 5050,
      "淮": 5051,
      "深": 5052,
      "淳": 5053,
      "淵": 5054,
      "混": 5055,
      "淸": 5056,
      "淹": 5057,
      "淺": 5058,
      "添": 5059,
      "淼": 5060,
      "清": 5061,
      "渇": 5062,
      "済": 5063,
      "渉": 5064,
      "渊": 5065,
      "渋": 5066,
      "渍": 5067,
      "渎": 5068,
      "渐": 5069,
      "渓": 5070,
      "渔": 5071,
      "渕": 5072,
      "渗": 5073,
      "渚": 5074,
      "減": 5075,
      "渝": 5076,
      "渠": 5077,
      "渡": 5078,
      "渣": 5079,
      "渤": 5080,
      "渥": 5081,
      "渦": 5082,
      "温": 5083,
      "測": 5084,
      "渭": 5085,
      "港": 5086,
      "渲": 5087,
      "渴": 5088,
      "游": 5089,
      "渺": 5090,
      "渾": 5091,
      "湃": 5092,
      "湄": 5093,
      "湊": 5094,
      "湍": 5095,
      "湖": 5096,
      "湘": 5097,
      "湛": 5098,
      "湟": 5099,
      "湧": 5100,
      "湮": 5101,
      "湯": 5102,
      "湳": 5103,
      "湾": 5104,
      "湿": 5105,
      "満": 5106,
      "溃": 5107,
      "溅": 5108,
      "溉": 5109,
      "源": 5110,
      "準": 5111,
      "溜": 5112,
      "溝": 5113,
      "溟": 5114,
      "溢": 5115,
      "溥": 5116,
      "溧": 5117,
      "溪": 5118,
      "溫": 5119,
      "溯": 5120,
      "溴": 5121,
      "溶": 5122,
      "溺": 5123,
      "滁": 5124,
      "滂": 5125,
      "滄": 5126,
      "滅": 5127,
      "滇": 5128,
      "滉": 5129,
      "滋": 5130,
      "滌": 5131,
      "滎": 5132,
      "滑": 5133,
      "滓": 5134,
      "滔": 5135,
      "滕": 5136,
      "滘": 5137,
      "滙": 5138,
      "滚": 5139,
      "滝": 5140,
      "滞": 5141,
      "满": 5142,
      "滤": 5143,
      "滥": 5144,
      "滦": 5145,
      "滨": 5146,
      "滩": 5147,
      "滬": 5148,
      "滯": 5149,
      "滲": 5150,
      "滴": 5151,
      "滸": 5152,
      "滾": 5153,
      "滿": 5154,
      "漁": 5155,
      "漂": 5156,
      "漆": 5157,
      "漉": 5158,
      "漏": 5159,
      "漑": 5160,
      "漓": 5161,
      "演": 5162,
      "漕": 5163,
      "漠": 5164,
      "漢": 5165,
      "漣": 5166,
      "漩": 5167,
      "漪": 5168,
      "漫": 5169,
      "漬": 5170,
      "漯": 5171,
      "漱": 5172,
      "漲": 5173,
      "漳": 5174,
      "漸": 5175,
      "漾": 5176,
      "漿": 5177,
      "潁": 5178,
      "潇": 5179,
      "潍": 5180,
      "潑": 5181,
      "潔": 5182,
      "潘": 5183,
      "潛": 5184,
      "潜": 5185,
      "潞": 5186,
      "潟": 5187,
      "潢": 5188,
      "潤": 5189,
      "潦": 5190,
      "潭": 5191,
      "潮": 5192,
      "潯": 5193,
      "潰": 5194,
      "潼": 5195,
      "澀": 5196,
      "澁": 5197,
      "澂": 5198,
      "澄": 5199,
      "澆": 5200,
      "澈": 5201,
      "澍": 5202,
      "澎": 5203,
      "澗": 5204,
      "澜": 5205,
      "澡": 5206,
      "澤": 5207,
      "澧": 5208,
      "澪": 5209,
      "澱": 5210,
      "澳": 5211,
      "澹": 5212,
      "激": 5213,
      "濁": 5214,
      "濂": 5215,
      "濃": 5216,
      "濑": 5217,
      "濒": 5218,
      "濕": 5219,
      "濛": 5220,
      "濟": 5221,
      "濠": 5222,
      "濡": 5223,
      "濤": 5224,
      "濫": 5225,
      "濬": 5226,
      "濮": 5227,
      "濯": 5228,
      "濰": 5229,
      "濱": 5230,
      "濺": 5231,
      "濾": 5232,
      "瀆": 5233,
      "瀉": 5234,
      "瀋": 5235,
      "瀏": 5236,
      "瀑": 5237,
      "瀕": 5238,
      "瀘": 5239,
      "瀚": 5240,
      "瀛": 5241,
      "瀝": 5242,
      "瀞": 5243,
      "瀟": 5244,
      "瀧": 5245,
      "瀨": 5246,
      "瀬": 5247,
      "瀾": 5248,
      "灌": 5249,
      "灏": 5250,
      "灑": 5251,
      "灘": 5252,
      "灝": 5253,
      "灞": 5254,
      "灣": 5255,
      "灤": 5256,
      "火": 5257,
      "灭": 5258,
      "灯": 5259,
      "灰": 5260,
      "灵": 5261,
      "灶": 5262,
      "灸": 5263,
      "灼": 5264,
      "災": 5265,
      "灾": 5266,
      "灿": 5267,
      "炀": 5268,
      "炅": 5269,
      "炉": 5270,
      "炊": 5271,
      "炎": 5272,
      "炒": 5273,
      "炔": 5274,
      "炘": 5275,
      "炙": 5276,
      "炜": 5277,
      "炫": 5278,
      "炬": 5279,
      "炭": 5280,
      "炮": 5281,
      "炯": 5282,
      "炱": 5283,
      "炳": 5284,
      "炸": 5285,
      "点": 5286,
      "為": 5287,
      "炼": 5288,
      "炽": 5289,
      "烁": 5290,
      "烂": 5291,
      "烃": 5292,
      "烈": 5293,
      "烏": 5294,
      "烘": 5295,
      "烙": 5296,
      "烛": 5297,
      "烟": 5298,
      "烤": 5299,
      "烦": 5300,
      "烧": 5301,
      "烨": 5302,
      "烫": 5303,
      "热": 5304,
      "烯": 5305,
      "烴": 5306,
      "烷": 5307,
      "烹": 5308,
      "烽": 5309,
      "焉": 5310,
      "焊": 5311,
      "焔": 5312,
      "焕": 5313,
      "焘": 5314,
      "焙": 5315,
      "焚": 5316,
      "焜": 5317,
      "無": 5318,
      "焦": 5319,
      "焯": 5320,
      "焰": 5321,
      "然": 5322,
      "焼": 5323,
      "煇": 5324,
      "煉": 5325,
      "煊": 5326,
      "煌": 5327,
      "煎": 5328,
      "煒": 5329,
      "煕": 5330,
      "煙": 5331,
      "煜": 5332,
      "煞": 5333,
      "煤": 5334,
      "煥": 5335,
      "煦": 5336,
      "照": 5337,
      "煩": 5338,
      "煬": 5339,
      "煮": 5340,
      "煲": 5341,
      "煽": 5342,
      "熄": 5343,
      "熊": 5344,
      "熏": 5345,
      "熒": 5346,
      "熔": 5347,
      "熙": 5348,
      "熟": 5349,
      "熬": 5350,
      "熱": 5351,
      "熵": 5352,
      "熹": 5353,
      "熾": 5354,
      "燁": 5355,
      "燃": 5356,
      "燈": 5357,
      "燊": 5358,
      "燎": 5359,
      "燐": 5360,
      "燒": 5361,
      "燕": 5362,
      "燙": 5363,
      "營": 5364,
      "燥": 5365,
      "燦": 5366,
      "燧": 5367,
      "燭": 5368,
      "燮": 5369,
      "燻": 5370,
      "燼": 5371,
      "燾": 5372,
      "燿": 5373,
      "爆": 5374,
      "爍": 5375,
      "爐": 5376,
      "爛": 5377,
      "爨": 5378,
      "爪": 5379,
      "爬": 5380,
      "爭": 5381,
      "爰": 5382,
      "爱": 5383,
      "爲": 5384,
      "爵": 5385,
      "父": 5386,
      "爷": 5387,
      "爸": 5388,
      "爹": 5389,
      "爺": 5390,
      "爻": 5391,
      "爽": 5392,
      "爾": 5393,
      "牆": 5394,
      "片": 5395,
      "版": 5396,
      "牌": 5397,
      "牒": 5398,
      "牙": 5399,
      "牛": 5400,
      "牝": 5401,
      "牟": 5402,
      "牠": 5403,
      "牡": 5404,
      "牢": 5405,
      "牧": 5406,
      "物": 5407,
      "牲": 5408,
      "牵": 5409,
      "特": 5410,
      "牺": 5411,
      "牽": 5412,
      "犀": 5413,
      "犁": 5414,
      "犍": 5415,
      "犛": 5416,
      "犠": 5417,
      "犢": 5418,
      "犧": 5419,
      "犬": 5420,
      "犯": 5421,
      "状": 5422,
      "犹": 5423,
      "狀": 5424,
      "狂": 5425,
      "狄": 5426,
      "狐": 5427,
      "狒": 5428,
      "狗": 5429,
      "狙": 5430,
      "狛": 5431,
      "狠": 5432,
      "狡": 5433,
      "狩": 5434,
      "独": 5435,
      "狭": 5436,
      "狮": 5437,
      "狱": 5438,
      "狸": 5439,
      "狹": 5440,
      "狼": 5441,
      "猎": 5442,
      "猕": 5443,
      "猖": 5444,
      "猗": 5445,
      "猛": 5446,
      "猜": 5447,
      "猝": 5448,
      "猟": 5449,
      "猥": 5450,
      "猩": 5451,
      "猪": 5452,
      "猫": 5453,
      "献": 5454,
      "猴": 5455,
      "猶": 5456,
      "猷": 5457,
      "猾": 5458,
      "猿": 5459,
      "獄": 5460,
      "獅": 5461,
      "獎": 5462,
      "獏": 5463,
      "獐": 5464,
      "獠": 5465,
      "獣": 5466,
      "獨": 5467,
      "獲": 5468,
      "獵": 5469,
      "獸": 5470,
      "獺": 5471,
      "獻": 5472,
      "獼": 5473,
      "獾": 5474,
      "玄": 5475,
      "率": 5476,
      "玉": 5477,
      "王": 5478,
      "玖": 5479,
      "玛": 5480,
      "玟": 5481,
      "玠": 5482,
      "玥": 5483,
      "玩": 5484,
      "玫": 5485,
      "玮": 5486,
      "环": 5487,
      "现": 5488,
      "玲": 5489,
      "玳": 5490,
      "玺": 5491,
      "玻": 5492,
      "珀": 5493,
      "珂": 5494,
      "珅": 5495,
      "珈": 5496,
      "珉": 5497,
      "珊": 5498,
      "珍": 5499,
      "珏": 5500,
      "珑": 5501,
      "珙": 5502,
      "珞": 5503,
      "珠": 5504,
      "珣": 5505,
      "珥": 5506,
      "珩": 5507,
      "珪": 5508,
      "班": 5509,
      "珮": 5510,
      "珲": 5511,
      "現": 5512,
      "球": 5513,
      "琅": 5514,
      "理": 5515,
      "琇": 5516,
      "琉": 5517,
      "琊": 5518,
      "琏": 5519,
      "琐": 5520,
      "琚": 5521,
      "琛": 5522,
      "琢": 5523,
      "琥": 5524,
      "琦": 5525,
      "琨": 5526,
      "琪": 5527,
      "琬": 5528,
      "琮": 5529,
      "琰": 5530,
      "琲": 5531,
      "琳": 5532,
      "琴": 5533,
      "琵": 5534,
      "琶": 5535,
      "琼": 5536,
      "琿": 5537,
      "瑀": 5538,
      "瑁": 5539,
      "瑄": 5540,
      "瑋": 5541,
      "瑕": 5542,
      "瑗": 5543,
      "瑙": 5544,
      "瑚": 5545,
      "瑛": 5546,
      "瑜": 5547,
      "瑞": 5548,
      "瑟": 5549,
      "瑠": 5550,
      "瑣": 5551,
      "瑤": 5552,
      "瑩": 5553,
      "瑪": 5554,
      "瑭": 5555,
      "瑯": 5556,
      "瑰": 5557,
      "瑳": 5558,
      "瑶": 5559,
      "瑾": 5560,
      "璀": 5561,
      "璁": 5562,
      "璃": 5563,
      "璇": 5564,
      "璉": 5565,
      "璋": 5566,
      "璐": 5567,
      "璘": 5568,
      "璜": 5569,
      "璞": 5570,
      "璟": 5571,
      "璠": 5572,
      "璧": 5573,
      "璨": 5574,
      "璩": 5575,
      "環": 5576,
      "璽": 5577,
      "璿": 5578,
      "瓊": 5579,
      "瓌": 5580,
      "瓏": 5581,
      "瓒": 5582,
      "瓘": 5583,
      "瓚": 5584,
      "瓜": 5585,
      "瓢": 5586,
      "瓣": 5587,
      "瓦": 5588,
      "瓮": 5589,
      "瓯": 5590,
      "瓶": 5591,
      "瓷": 5592,
      "甄": 5593,
      "甌": 5594,
      "甑": 5595,
      "甕": 5596,
      "甘": 5597,
      "甚": 5598,
      "甜": 5599,
      "生": 5600,
      "產": 5601,
      "産": 5602,
      "甥": 5603,
      "甦": 5604,
      "用": 5605,
      "甩": 5606,
      "甫": 5607,
      "甬": 5608,
      "甯": 5609,
      "田": 5610,
      "由": 5611,
      "甲": 5612,
      "申": 5613,
      "电": 5614,
      "男": 5615,
      "甸": 5616,
      "町": 5617,
      "画": 5618,
      "畅": 5619,
      "畈": 5620,
      "界": 5621,
      "畏": 5622,
      "畑": 5623,
      "畔": 5624,
      "留": 5625,
      "畜": 5626,
      "畝": 5627,
      "畠": 5628,
      "畢": 5629,
      "略": 5630,
      "畦": 5631,
      "番": 5632,
      "畫": 5633,
      "異": 5634,
      "畲": 5635,
      "畳": 5636,
      "畴": 5637,
      "畵": 5638,
      "當": 5639,
      "畷": 5640,
      "畸": 5641,
      "畿": 5642,
      "疃": 5643,
      "疆": 5644,
      "疇": 5645,
      "疊": 5646,
      "疋": 5647,
      "疎": 5648,
      "疏": 5649,
      "疑": 5650,
      "疗": 5651,
      "疚": 5652,
      "疟": 5653,
      "疣": 5654,
      "疤": 5655,
      "疫": 5656,
      "疮": 5657,
      "疯": 5658,
      "疱": 5659,
      "疲": 5660,
      "疵": 5661,
      "疸": 5662,
      "疹": 5663,
      "疼": 5664,
      "疽": 5665,
      "疾": 5666,
      "病": 5667,
      "症": 5668,
      "痊": 5669,
      "痍": 5670,
      "痒": 5671,
      "痔": 5672,
      "痕": 5673,
      "痘": 5674,
      "痙": 5675,
      "痛": 5676,
      "痞": 5677,
      "痢": 5678,
      "痣": 5679,
      "痩": 5680,
      "痪": 5681,
      "痰": 5682,
      "痴": 5683,
      "痹": 5684,
      "痺": 5685,
      "瘀": 5686,
      "瘋": 5687,
      "瘍": 5688,
      "瘓": 5689,
      "瘟": 5690,
      "瘠": 5691,
      "瘡": 5692,
      "瘤": 5693,
      "瘦": 5694,
      "瘧": 5695,
      "瘫": 5696,
      "瘴": 5697,
      "瘾": 5698,
      "療": 5699,
      "癇": 5700,
      "癌": 5701,
      "癒": 5702,
      "癖": 5703,
      "癡": 5704,
      "癢": 5705,
      "癫": 5706,
      "癬": 5707,
      "癮": 5708,
      "癱": 5709,
      "癲": 5710,
      "癸": 5711,
      "発": 5712,
      "登": 5713,
      "發": 5714,
      "白": 5715,
      "百": 5716,
      "皂": 5717,
      "的": 5718,
      "皆": 5719,
      "皇": 5720,
      "皈": 5721,
      "皋": 5722,
      "皎": 5723,
      "皐": 5724,
      "皓": 5725,
      "皖": 5726,
      "皝": 5727,
      "皮": 5728,
      "皱": 5729,
      "皺": 5730,
      "皿": 5731,
      "盂": 5732,
      "盃": 5733,
      "盆": 5734,
      "盈": 5735,
      "益": 5736,
      "盎": 5737,
      "盏": 5738,
      "盐": 5739,
      "监": 5740,
      "盒": 5741,
      "盔": 5742,
      "盖": 5743,
      "盗": 5744,
      "盘": 5745,
      "盛": 5746,
      "盜": 5747,
      "盞": 5748,
      "盟": 5749,
      "盡": 5750,
      "監": 5751,
      "盤": 5752,
      "盧": 5753,
      "盪": 5754,
      "目": 5755,
      "盯": 5756,
      "盱": 5757,
      "盲": 5758,
      "直": 5759,
      "相": 5760,
      "盼": 5761,
      "盾": 5762,
      "省": 5763,
      "眉": 5764,
      "看": 5765,
      "県": 5766,
      "眙": 5767,
      "眞": 5768,
      "真": 5769,
      "眠": 5770,
      "眩": 5771,
      "眶": 5772,
      "眷": 5773,
      "眸": 5774,
      "眺": 5775,
      "眼": 5776,
      "眾": 5777,
      "着": 5778,
      "睇": 5779,
      "睐": 5780,
      "睛": 5781,
      "睞": 5782,
      "睡": 5783,
      "睢": 5784,
      "督": 5785,
      "睦": 5786,
      "睨": 5787,
      "睪": 5788,
      "睫": 5789,
      "睹": 5790,
      "睽": 5791,
      "睾": 5792,
      "睿": 5793,
      "瞄": 5794,
      "瞋": 5795,
      "瞎": 5796,
      "瞑": 5797,
      "瞒": 5798,
      "瞞": 5799,
      "瞥": 5800,
      "瞧": 5801,
      "瞩": 5802,
      "瞪": 5803,
      "瞬": 5804,
      "瞭": 5805,
      "瞰": 5806,
      "瞳": 5807,
      "瞻": 5808,
      "瞼": 5809,
      "瞿": 5810,
      "矗": 5811,
      "矚": 5812,
      "矛": 5813,
      "矜": 5814,
      "矢": 5815,
      "矣": 5816,
      "知": 5817,
      "矧": 5818,
      "矩": 5819,
      "矫": 5820,
      "短": 5821,
      "矮": 5822,
      "矯": 5823,
      "石": 5824,
      "矶": 5825,
      "矽": 5826,
      "矿": 5827,
      "码": 5828,
      "砂": 5829,
      "砌": 5830,
      "砍": 5831,
      "研": 5832,
      "砕": 5833,
      "砖": 5834,
      "砚": 5835,
      "砥": 5836,
      "砦": 5837,
      "砧": 5838,
      "砲": 5839,
      "破": 5840,
      "砷": 5841,
      "砸": 5842,
      "砺": 5843,
      "砾": 5844,
      "础": 5845,
      "硅": 5846,
      "硏": 5847,
      "硒": 5848,
      "硕": 5849,
      "硝": 5850,
      "硤": 5851,
      "硫": 5852,
      "硬": 5853,
      "确": 5854,
      "硯": 5855,
      "硼": 5856,
      "碁": 5857,
      "碇": 5858,
      "碉": 5859,
      "碌": 5860,
      "碍": 5861,
      "碎": 5862,
      "碑": 5863,
      "碓": 5864,
      "碕": 5865,
      "碗": 5866,
      "碘": 5867,
      "碚": 5868,
      "碟": 5869,
      "碣": 5870,
      "碧": 5871,
      "碩": 5872,
      "碰": 5873,
      "碱": 5874,
      "碳": 5875,
      "確": 5876,
      "碼": 5877,
      "碾": 5878,
      "磁": 5879,
      "磅": 5880,
      "磊": 5881,
      "磋": 5882,
      "磐": 5883,
      "磔": 5884,
      "磚": 5885,
      "磡": 5886,
      "磨": 5887,
      "磯": 5888,
      "磷": 5889,
      "磺": 5890,
      "礁": 5891,
      "礎": 5892,
      "礙": 5893,
      "礦": 5894,
      "礪": 5895,
      "礫": 5896,
      "礬": 5897,
      "示": 5898,
      "礼": 5899,
      "社": 5900,
      "祀": 5901,
      "祁": 5902,
      "祂": 5903,
      "祇": 5904,
      "祈": 5905,
      "祉": 5906,
      "祐": 5907,
      "祓": 5908,
      "祕": 5909,
      "祖": 5910,
      "祗": 5911,
      "祚": 5912,
      "祜": 5913,
      "祝": 5914,
      "神": 5915,
      "祟": 5916,
      "祠": 5917,
      "祢": 5918,
      "祥": 5919,
      "票": 5920,
      "祭": 5921,
      "祯": 5922,
      "祷": 5923,
      "祸": 5924,
      "祺": 5925,
      "祿": 5926,
      "禀": 5927,
      "禁": 5928,
      "禄": 5929,
      "禅": 5930,
      "禍": 5931,
      "禎": 5932,
      "福": 5933,
      "禕": 5934,
      "禛": 5935,
      "禦": 5936,
      "禧": 5937,
      "禪": 5938,
      "禮": 5939,
      "禰": 5940,
      "禱": 5941,
      "禹": 5942,
      "禺": 5943,
      "离": 5944,
      "禽": 5945,
      "禾": 5946,
      "禿": 5947,
      "秀": 5948,
      "私": 5949,
      "秃": 5950,
      "秉": 5951,
      "秋": 5952,
      "种": 5953,
      "科": 5954,
      "秒": 5955,
      "秘": 5956,
      "租": 5957,
      "秣": 5958,
      "秤": 5959,
      "秦": 5960,
      "秧": 5961,
      "秩": 5962,
      "积": 5963,
      "称": 5964,
      "移": 5965,
      "秽": 5966,
      "稀": 5967,
      "稅": 5968,
      "程": 5969,
      "稍": 5970,
      "税": 5971,
      "稔": 5972,
      "稗": 5973,
      "稙": 5974,
      "稚": 5975,
      "稜": 5976,
      "稟": 5977,
      "稠": 5978,
      "稣": 5979,
      "種": 5980,
      "稱": 5981,
      "稲": 5982,
      "稳": 5983,
      "稷": 5984,
      "稻": 5985,
      "稼": 5986,
      "稽": 5987,
      "稿": 5988,
      "穀": 5989,
      "穂": 5990,
      "穆": 5991,
      "穌": 5992,
      "積": 5993,
      "穎": 5994,
      "穏": 5995,
      "穗": 5996,
      "穢": 5997,
      "穣": 5998,
      "穩": 5999,
      "穫": 6000,
      "穰": 6001,
      "穴": 6002,
      "究": 6003,
      "穷": 6004,
      "穹": 6005,
      "空": 6006,
      "穿": 6007,
      "突": 6008,
      "窃": 6009,
      "窄": 6010,
      "窈": 6011,
      "窑": 6012,
      "窒": 6013,
      "窓": 6014,
      "窖": 6015,
      "窗": 6016,
      "窘": 6017,
      "窜": 6018,
      "窝": 6019,
      "窟": 6020,
      "窥": 6021,
      "窦": 6022,
      "窩": 6023,
      "窪": 6024,
      "窮": 6025,
      "窯": 6026,
      "窺": 6027,
      "窿": 6028,
      "竄": 6029,
      "竇": 6030,
      "竈": 6031,
      "竊": 6032,
      "立": 6033,
      "竑": 6034,
      "竖": 6035,
      "站": 6036,
      "竜": 6037,
      "竞": 6038,
      "竟": 6039,
      "章": 6040,
      "竣": 6041,
      "童": 6042,
      "竪": 6043,
      "竭": 6044,
      "端": 6045,
      "競": 6046,
      "竹": 6047,
      "竺": 6048,
      "竿": 6049,
      "笃": 6050,
      "笈": 6051,
      "笋": 6052,
      "笏": 6053,
      "笑": 6054,
      "笔": 6055,
      "笙": 6056,
      "笛": 6057,
      "笞": 6058,
      "笠": 6059,
      "笥": 6060,
      "符": 6061,
      "笨": 6062,
      "第": 6063,
      "笹": 6064,
      "笺": 6065,
      "笼": 6066,
      "筆": 6067,
      "筈": 6068,
      "等": 6069,
      "筋": 6070,
      "筍": 6071,
      "筏": 6072,
      "筐": 6073,
      "筑": 6074,
      "筒": 6075,
      "答": 6076,
      "策": 6077,
      "筛": 6078,
      "筝": 6079,
      "筠": 6080,
      "筧": 6081,
      "筱": 6082,
      "筲": 6083,
      "筵": 6084,
      "筷": 6085,
      "筹": 6086,
      "签": 6087,
      "简": 6088,
      "箇": 6089,
      "箋": 6090,
      "箍": 6091,
      "箏": 6092,
      "箐": 6093,
      "箒": 6094,
      "箔": 6095,
      "箕": 6096,
      "算": 6097,
      "管": 6098,
      "箪": 6099,
      "箭": 6100,
      "箱": 6101,
      "箴": 6102,
      "箸": 6103,
      "節": 6104,
      "篁": 6105,
      "範": 6106,
      "篆": 6107,
      "篇": 6108,
      "築": 6109,
      "篙": 6110,
      "篝": 6111,
      "篠": 6112,
      "篡": 6113,
      "篤": 6114,
      "篩": 6115,
      "篭": 6116,
      "篮": 6117,
      "篱": 6118,
      "篷": 6119,
      "簇": 6120,
      "簒": 6121,
      "簗": 6122,
      "簡": 6123,
      "簧": 6124,
      "簪": 6125,
      "簫": 6126,
      "簷": 6127,
      "簸": 6128,
      "簽": 6129,
      "簾": 6130,
      "簿": 6131,
      "籃": 6132,
      "籌": 6133,
      "籍": 6134,
      "籐": 6135,
      "籠": 6136,
      "籤": 6137,
      "籬": 6138,
      "籲": 6139,
      "米": 6140,
      "类": 6141,
      "籽": 6142,
      "籾": 6143,
      "粉": 6144,
      "粋": 6145,
      "粒": 6146,
      "粕": 6147,
      "粗": 6148,
      "粘": 6149,
      "粛": 6150,
      "粟": 6151,
      "粤": 6152,
      "粥": 6153,
      "粧": 6154,
      "粪": 6155,
      "粮": 6156,
      "粱": 6157,
      "粲": 6158,
      "粵": 6159,
      "粹": 6160,
      "粽": 6161,
      "精": 6162,
      "粿": 6163,
      "糊": 6164,
      "糎": 6165,
      "糕": 6166,
      "糖": 6167,
      "糙": 6168,
      "糜": 6169,
      "糞": 6170,
      "糟": 6171,
      "糠": 6172,
      "糧": 6173,
      "糯": 6174,
      "糸": 6175,
      "系": 6176,
      "糾": 6177,
      "紀": 6178,
      "紂": 6179,
      "約": 6180,
      "紅": 6181,
      "紆": 6182,
      "紇": 6183,
      "紊": 6184,
      "紋": 6185,
      "納": 6186,
      "紐": 6187,
      "紓": 6188,
      "純": 6189,
      "紗": 6190,
      "紘": 6191,
      "紙": 6192,
      "級": 6193,
      "紛": 6194,
      "素": 6195,
      "紡": 6196,
      "索": 6197,
      "紧": 6198,
      "紫": 6199,
      "紬": 6200,
      "紮": 6201,
      "累": 6202,
      "細": 6203,
      "紳": 6204,
      "紹": 6205,
      "紺": 6206,
      "終": 6207,
      "絃": 6208,
      "組": 6209,
      "絆": 6210,
      "経": 6211,
      "結": 6212,
      "絕": 6213,
      "絞": 6214,
      "絡": 6215,
      "絢": 6216,
      "給": 6217,
      "絨": 6218,
      "絮": 6219,
      "統": 6220,
      "絲": 6221,
      "絳": 6222,
      "絵": 6223,
      "絶": 6224,
      "絹": 6225,
      "綁": 6226,
      "綏": 6227,
      "經": 6228,
      "継": 6229,
      "続": 6230,
      "綜": 6231,
      "綠": 6232,
      "綢": 6233,
      "綦": 6234,
      "綫": 6235,
      "綬": 6236,
      "維": 6237,
      "綱": 6238,
      "網": 6239,
      "綴": 6240,
      "綸": 6241,
      "綺": 6242,
      "綻": 6243,
      "綽": 6244,
      "綾": 6245,
      "綿": 6246,
      "緊": 6247,
      "緋": 6248,
      "総": 6249,
      "緑": 6250,
      "緒": 6251,
      "線": 6252,
      "緝": 6253,
      "緞": 6254,
      "締": 6255,
      "緣": 6256,
      "編": 6257,
      "緩": 6258,
      "緬": 6259,
      "緯": 6260,
      "練": 6261,
      "緹": 6262,
      "緻": 6263,
      "縁": 6264,
      "縄": 6265,
      "縉": 6266,
      "縊": 6267,
      "縛": 6268,
      "縞": 6269,
      "縣": 6270,
      "縦": 6271,
      "縫": 6272,
      "縮": 6273,
      "縱": 6274,
      "縷": 6275,
      "縻": 6276,
      "總": 6277,
      "績": 6278,
      "繁": 6279,
      "繆": 6280,
      "繇": 6281,
      "繊": 6282,
      "繋": 6283,
      "繍": 6284,
      "織": 6285,
      "繕": 6286,
      "繚": 6287,
      "繞": 6288,
      "繡": 6289,
      "繩": 6290,
      "繪": 6291,
      "繫": 6292,
      "繭": 6293,
      "繰": 6294,
      "繳": 6295,
      "繹": 6296,
      "繼": 6297,
      "纂": 6298,
      "續": 6299,
      "纏": 6300,
      "纓": 6301,
      "纖": 6302,
      "纜": 6303,
      "纠": 6304,
      "红": 6305,
      "纤": 6306,
      "纥": 6307,
      "约": 6308,
      "级": 6309,
      "纪": 6310,
      "纬": 6311,
      "纮": 6312,
      "纯": 6313,
      "纱": 6314,
      "纲": 6315,
      "纳": 6316,
      "纵": 6317,
      "纶": 6318,
      "纷": 6319,
      "纸": 6320,
      "纹": 6321,
      "纺": 6322,
      "纽": 6323,
      "纾": 6324,
      "线": 6325,
      "绀": 6326,
      "练": 6327,
      "组": 6328,
      "绅": 6329,
      "细": 6330,
      "织": 6331,
      "终": 6332,
      "绊": 6333,
      "绍": 6334,
      "绎": 6335,
      "经": 6336,
      "绑": 6337,
      "绒": 6338,
      "结": 6339,
      "绕": 6340,
      "绘": 6341,
      "给": 6342,
      "绚": 6343,
      "绛": 6344,
      "络": 6345,
      "绝": 6346,
      "绞": 6347,
      "统": 6348,
      "绢": 6349,
      "绣": 6350,
      "绥": 6351,
      "继": 6352,
      "绩": 6353,
      "绪": 6354,
      "绫": 6355,
      "续": 6356,
      "绮": 6357,
      "绯": 6358,
      "绰": 6359,
      "绳": 6360,
      "维": 6361,
      "绵": 6362,
      "绶": 6363,
      "绸": 6364,
      "综": 6365,
      "绽": 6366,
      "绿": 6367,
      "缀": 6368,
      "缅": 6369,
      "缆": 6370,
      "缇": 6371,
      "缉": 6372,
      "缎": 6373,
      "缓": 6374,
      "缔": 6375,
      "缕": 6376,
      "编": 6377,
      "缘": 6378,
      "缙": 6379,
      "缚": 6380,
      "缝": 6381,
      "缠": 6382,
      "缢": 6383,
      "缨": 6384,
      "缩": 6385,
      "缪": 6386,
      "缮": 6387,
      "缴": 6388,
      "缶": 6389,
      "缸": 6390,
      "缺": 6391,
      "缽": 6392,
      "罂": 6393,
      "罄": 6394,
      "罌": 6395,
      "罐": 6396,
      "网": 6397,
      "罔": 6398,
      "罕": 6399,
      "罗": 6400,
      "罚": 6401,
      "罠": 6402,
      "罢": 6403,
      "罩": 6404,
      "罪": 6405,
      "置": 6406,
      "罰": 6407,
      "署": 6408,
      "罵": 6409,
      "罷": 6410,
      "罹": 6411,
      "羁": 6412,
      "羅": 6413,
      "羈": 6414,
      "羊": 6415,
      "羌": 6416,
      "美": 6417,
      "羔": 6418,
      "羚": 6419,
      "羞": 6420,
      "羟": 6421,
      "羡": 6422,
      "羣": 6423,
      "群": 6424,
      "羥": 6425,
      "羧": 6426,
      "羨": 6427,
      "義": 6428,
      "羯": 6429,
      "羰": 6430,
      "羲": 6431,
      "羹": 6432,
      "羽": 6433,
      "羿": 6434,
      "翁": 6435,
      "翅": 6436,
      "翊": 6437,
      "翌": 6438,
      "翎": 6439,
      "習": 6440,
      "翔": 6441,
      "翘": 6442,
      "翟": 6443,
      "翠": 6444,
      "翡": 6445,
      "翦": 6446,
      "翩": 6447,
      "翰": 6448,
      "翱": 6449,
      "翳": 6450,
      "翹": 6451,
      "翻": 6452,
      "翼": 6453,
      "耀": 6454,
      "老": 6455,
      "考": 6456,
      "者": 6457,
      "耆": 6458,
      "而": 6459,
      "耍": 6460,
      "耐": 6461,
      "耒": 6462,
      "耕": 6463,
      "耗": 6464,
      "耘": 6465,
      "耙": 6466,
      "耦": 6467,
      "耳": 6468,
      "耶": 6469,
      "耸": 6470,
      "耻": 6471,
      "耽": 6472,
      "耿": 6473,
      "聂": 6474,
      "聆": 6475,
      "聊": 6476,
      "聋": 6477,
      "职": 6478,
      "联": 6479,
      "聖": 6480,
      "聘": 6481,
      "聚": 6482,
      "聞": 6483,
      "聡": 6484,
      "聪": 6485,
      "聯": 6486,
      "聰": 6487,
      "聲": 6488,
      "聳": 6489,
      "聴": 6490,
      "聶": 6491,
      "職": 6492,
      "聽": 6493,
      "聾": 6494,
      "聿": 6495,
      "肃": 6496,
      "肄": 6497,
      "肅": 6498,
      "肆": 6499,
      "肇": 6500,
      "肉": 6501,
      "肋": 6502,
      "肌": 6503,
      "肖": 6504,
      "肘": 6505,
      "肚": 6506,
      "肛": 6507,
      "肝": 6508,
      "肠": 6509,
      "股": 6510,
      "肢": 6511,
      "肤": 6512,
      "肥": 6513,
      "肩": 6514,
      "肪": 6515,
      "肯": 6516,
      "肱": 6517,
      "育": 6518,
      "肴": 6519,
      "肺": 6520,
      "肽": 6521,
      "肾": 6522,
      "肿": 6523,
      "胀": 6524,
      "胁": 6525,
      "胃": 6526,
      "胄": 6527,
      "胆": 6528,
      "背": 6529,
      "胎": 6530,
      "胖": 6531,
      "胚": 6532,
      "胜": 6533,
      "胞": 6534,
      "胡": 6535,
      "胤": 6536,
      "胥": 6537,
      "胪": 6538,
      "胭": 6539,
      "胰": 6540,
      "胱": 6541,
      "胴": 6542,
      "胶": 6543,
      "胸": 6544,
      "胺": 6545,
      "能": 6546,
      "脂": 6547,
      "脅": 6548,
      "脆": 6549,
      "脇": 6550,
      "脈": 6551,
      "脉": 6552,
      "脊": 6553,
      "脏": 6554,
      "脐": 6555,
      "脑": 6556,
      "脖": 6557,
      "脚": 6558,
      "脛": 6559,
      "脩": 6560,
      "脫": 6561,
      "脯": 6562,
      "脱": 6563,
      "脳": 6564,
      "脷": 6565,
      "脸": 6566,
      "脹": 6567,
      "脾": 6568,
      "腈": 6569,
      "腊": 6570,
      "腋": 6571,
      "腌": 6572,
      "腎": 6573,
      "腐": 6574,
      "腑": 6575,
      "腓": 6576,
      "腔": 6577,
      "腕": 6578,
      "腥": 6579,
      "腦": 6580,
      "腫": 6581,
      "腮": 6582,
      "腰": 6583,
      "腱": 6584,
      "腳": 6585,
      "腸": 6586,
      "腹": 6587,
      "腺": 6588,
      "腻": 6589,
      "腾": 6590,
      "腿": 6591,
      "膀": 6592,
      "膏": 6593,
      "膚": 6594,
      "膛": 6595,
      "膜": 6596,
      "膝": 6597,
      "膠": 6598,
      "膣": 6599,
      "膦": 6600,
      "膨": 6601,
      "膩": 6602,
      "膳": 6603,
      "膵": 6604,
      "膺": 6605,
      "膽": 6606,
      "膿": 6607,
      "臀": 6608,
      "臂": 6609,
      "臆": 6610,
      "臉": 6611,
      "臍": 6612,
      "臓": 6613,
      "臘": 6614,
      "臚": 6615,
      "臟": 6616,
      "臣": 6617,
      "臥": 6618,
      "臧": 6619,
      "臨": 6620,
      "自": 6621,
      "臭": 6622,
      "至": 6623,
      "致": 6624,
      "臺": 6625,
      "臻": 6626,
      "臼": 6627,
      "舂": 6628,
      "舅": 6629,
      "舆": 6630,
      "與": 6631,
      "興": 6632,
      "舉": 6633,
      "舊": 6634,
      "舌": 6635,
      "舍": 6636,
      "舎": 6637,
      "舐": 6638,
      "舒": 6639,
      "舔": 6640,
      "舖": 6641,
      "舗": 6642,
      "舘": 6643,
      "舛": 6644,
      "舜": 6645,
      "舞": 6646,
      "舟": 6647,
      "航": 6648,
      "舫": 6649,
      "般": 6650,
      "舰": 6651,
      "舱": 6652,
      "舵": 6653,
      "舶": 6654,
      "舷": 6655,
      "船": 6656,
      "舺": 6657,
      "艇": 6658,
      "艉": 6659,
      "艋": 6660,
      "艏": 6661,
      "艘": 6662,
      "艙": 6663,
      "艤": 6664,
      "艦": 6665,
      "艮": 6666,
      "良": 6667,
      "艰": 6668,
      "艱": 6669,
      "色": 6670,
      "艳": 6671,
      "艶": 6672,
      "艷": 6673,
      "艺": 6674,
      "艾": 6675,
      "节": 6676,
      "芋": 6677,
      "芍": 6678,
      "芎": 6679,
      "芒": 6680,
      "芙": 6681,
      "芜": 6682,
      "芝": 6683,
      "芥": 6684,
      "芦": 6685,
      "芩": 6686,
      "芬": 6687,
      "芭": 6688,
      "芮": 6689,
      "芯": 6690,
      "花": 6691,
      "芳": 6692,
      "芷": 6693,
      "芸": 6694,
      "芹": 6695,
      "芻": 6696,
      "芽": 6697,
      "芾": 6698,
      "苅": 6699,
      "苇": 6700,
      "苍": 6701,
      "苏": 6702,
      "苑": 6703,
      "苓": 6704,
      "苔": 6705,
      "苗": 6706,
      "苛": 6707,
      "苞": 6708,
      "苟": 6709,
      "苣": 6710,
      "若": 6711,
      "苦": 6712,
      "苫": 6713,
      "苯": 6714,
      "英": 6715,
      "苳": 6716,
      "苴": 6717,
      "苷": 6718,
      "苹": 6719,
      "苺": 6720,
      "苻": 6721,
      "苾": 6722,
      "茂": 6723,
      "范": 6724,
      "茄": 6725,
      "茅": 6726,
      "茉": 6727,
      "茎": 6728,
      "茗": 6729,
      "茛": 6730,
      "茜": 6731,
      "茧": 6732,
      "茨": 6733,
      "茫": 6734,
      "茱": 6735,
      "茲": 6736,
      "茴": 6737,
      "茵": 6738,
      "茶": 6739,
      "茸": 6740,
      "茹": 6741,
      "荀": 6742,
      "荃": 6743,
      "荆": 6744,
      "草": 6745,
      "荊": 6746,
      "荏": 6747,
      "荐": 6748,
      "荒": 6749,
      "荔": 6750,
      "荖": 6751,
      "荘": 6752,
      "荚": 6753,
      "荟": 6754,
      "荡": 6755,
      "荣": 6756,
      "荥": 6757,
      "荧": 6758,
      "荫": 6759,
      "药": 6760,
      "荷": 6761,
      "荻": 6762,
      "荼": 6763,
      "莅": 6764,
      "莆": 6765,
      "莉": 6766,
      "莊": 6767,
      "莎": 6768,
      "莒": 6769,
      "莓": 6770,
      "莖": 6771,
      "莘": 6772,
      "莞": 6773,
      "莢": 6774,
      "莪": 6775,
      "莫": 6776,
      "莱": 6777,
      "莲": 6778,
      "获": 6779,
      "莹": 6780,
      "莺": 6781,
      "莽": 6782,
      "莿": 6783,
      "菀": 6784,
      "菁": 6785,
      "菅": 6786,
      "菇": 6787,
      "菈": 6788,
      "菊": 6789,
      "菌": 6790,
      "菏": 6791,
      "菓": 6792,
      "菖": 6793,
      "菘": 6794,
      "菜": 6795,
      "菟": 6796,
      "菠": 6797,
      "菩": 6798,
      "菫": 6799,
      "華": 6800,
      "菰": 6801,
      "菱": 6802,
      "菲": 6803,
      "菴": 6804,
      "菸": 6805,
      "萃": 6806,
      "萄": 6807,
      "萇": 6808,
      "萊": 6809,
      "萌": 6810,
      "萍": 6811,
      "萎": 6812,
      "萘": 6813,
      "萝": 6814,
      "萤": 6815,
      "营": 6816,
      "萧": 6817,
      "萨": 6818,
      "萩": 6819,
      "萬": 6820,
      "萱": 6821,
      "萸": 6822,
      "萼": 6823,
      "落": 6824,
      "葆": 6825,
      "葉": 6826,
      "著": 6827,
      "葛": 6828,
      "葡": 6829,
      "董": 6830,
      "葦": 6831,
      "葫": 6832,
      "葬": 6833,
      "葭": 6834,
      "葱": 6835,
      "葳": 6836,
      "葵": 6837,
      "葺": 6838,
      "蒂": 6839,
      "蒋": 6840,
      "蒐": 6841,
      "蒔": 6842,
      "蒙": 6843,
      "蒜": 6844,
      "蒞": 6845,
      "蒨": 6846,
      "蒯": 6847,
      "蒲": 6848,
      "蒴": 6849,
      "蒸": 6850,
      "蒼": 6851,
      "蒿": 6852,
      "蓀": 6853,
      "蓁": 6854,
      "蓄": 6855,
      "蓉": 6856,
      "蓋": 6857,
      "蓑": 6858,
      "蓓": 6859,
      "蓝": 6860,
      "蓟": 6861,
      "蓬": 6862,
      "蓮": 6863,
      "蓼": 6864,
      "蔑": 6865,
      "蔓": 6866,
      "蔔": 6867,
      "蔗": 6868,
      "蔚": 6869,
      "蔡": 6870,
      "蔣": 6871,
      "蔥": 6872,
      "蔦": 6873,
      "蔬": 6874,
      "蔭": 6875,
      "蔵": 6876,
      "蔷": 6877,
      "蔻": 6878,
      "蔽": 6879,
      "蕁": 6880,
      "蕃": 6881,
      "蕈": 6882,
      "蕉": 6883,
      "蕊": 6884,
      "蕎": 6885,
      "蕗": 6886,
      "蕙": 6887,
      "蕨": 6888,
      "蕩": 6889,
      "蕪": 6890,
      "蕭": 6891,
      "蕲": 6892,
      "蕴": 6893,
      "蕾": 6894,
      "薄": 6895,
      "薇": 6896,
      "薈": 6897,
      "薊": 6898,
      "薑": 6899,
      "薔": 6900,
      "薗": 6901,
      "薙": 6902,
      "薛": 6903,
      "薦": 6904,
      "薨": 6905,
      "薩": 6906,
      "薪": 6907,
      "薫": 6908,
      "薬": 6909,
      "薮": 6910,
      "薯": 6911,
      "薰": 6912,
      "薹": 6913,
      "藁": 6914,
      "藉": 6915,
      "藍": 6916,
      "藏": 6917,
      "藐": 6918,
      "藓": 6919,
      "藔": 6920,
      "藕": 6921,
      "藜": 6922,
      "藝": 6923,
      "藤": 6924,
      "藥": 6925,
      "藩": 6926,
      "藪": 6927,
      "藹": 6928,
      "藺": 6929,
      "藻": 6930,
      "蘂": 6931,
      "蘄": 6932,
      "蘆": 6933,
      "蘇": 6934,
      "蘊": 6935,
      "蘋": 6936,
      "蘑": 6937,
      "蘚": 6938,
      "蘭": 6939,
      "蘿": 6940,
      "虎": 6941,
      "虏": 6942,
      "虐": 6943,
      "虑": 6944,
      "虔": 6945,
      "處": 6946,
      "虚": 6947,
      "虛": 6948,
      "虜": 6949,
      "虞": 6950,
      "號": 6951,
      "虢": 6952,
      "虧": 6953,
      "虫": 6954,
      "虬": 6955,
      "虱": 6956,
      "虹": 6957,
      "虻": 6958,
      "虽": 6959,
      "虾": 6960,
      "蚀": 6961,
      "蚁": 6962,
      "蚂": 6963,
      "蚊": 6964,
      "蚌": 6965,
      "蚓": 6966,
      "蚕": 6967,
      "蚜": 6968,
      "蚝": 6969,
      "蚣": 6970,
      "蚤": 6971,
      "蚩": 6972,
      "蚪": 6973,
      "蚬": 6974,
      "蚵": 6975,
      "蚶": 6976,
      "蛇": 6977,
      "蛉": 6978,
      "蛊": 6979,
      "蛋": 6980,
      "蛍": 6981,
      "蛎": 6982,
      "蛙": 6983,
      "蛛": 6984,
      "蛞": 6985,
      "蛟": 6986,
      "蛤": 6987,
      "蛭": 6988,
      "蛮": 6989,
      "蛯": 6990,
      "蛱": 6991,
      "蛸": 6992,
      "蛹": 6993,
      "蛺": 6994,
      "蛻": 6995,
      "蛾": 6996,
      "蜀": 6997,
      "蜂": 6998,
      "蜃": 6999,
      "蜆": 7000,
      "蜈": 7001,
      "蜍": 7002,
      "蜒": 7003,
      "蜓": 7004,
      "蜕": 7005,
      "蜗": 7006,
      "蜘": 7007,
      "蜚": 7008,
      "蜜": 7009,
      "蜡": 7010,
      "蜢": 7011,
      "蜥": 7012,
      "蜱": 7013,
      "蜴": 7014,
      "蜷": 7015,
      "蜻": 7016,
      "蜿": 7017,
      "蝇": 7018,
      "蝉": 7019,
      "蝋": 7020,
      "蝌": 7021,
      "蝎": 7022,
      "蝓": 7023,
      "蝕": 7024,
      "蝗": 7025,
      "蝙": 7026,
      "蝠": 7027,
      "蝦": 7028,
      "蝨": 7029,
      "蝮": 7030,
      "蝰": 7031,
      "蝴": 7032,
      "蝶": 7033,
      "蝸": 7034,
      "蝽": 7035,
      "螂": 7036,
      "螃": 7037,
      "螈": 7038,
      "融": 7039,
      "螞": 7040,
      "螢": 7041,
      "螯": 7042,
      "螳": 7043,
      "螺": 7044,
      "蟄": 7045,
      "蟆": 7046,
      "蟋": 7047,
      "蟑": 7048,
      "蟒": 7049,
      "蟠": 7050,
      "蟬": 7051,
      "蟲": 7052,
      "蟹": 7053,
      "蟻": 7054,
      "蟾": 7055,
      "蠅": 7056,
      "蠍": 7057,
      "蠕": 7058,
      "蠟": 7059,
      "蠡": 7060,
      "蠢": 7061,
      "蠣": 7062,
      "蠱": 7063,
      "蠶": 7064,
      "蠻": 7065,
      "血": 7066,
      "衅": 7067,
      "衆": 7068,
      "行": 7069,
      "衍": 7070,
      "術": 7071,
      "衔": 7072,
      "街": 7073,
      "衙": 7074,
      "衛": 7075,
      "衝": 7076,
      "衞": 7077,
      "衡": 7078,
      "衢": 7079,
      "衣": 7080,
      "补": 7081,
      "表": 7082,
      "衫": 7083,
      "衬": 7084,
      "衮": 7085,
      "衰": 7086,
      "衷": 7087,
      "衿": 7088,
      "袁": 7089,
      "袂": 7090,
      "袈": 7091,
      "袋": 7092,
      "袍": 7093,
      "袒": 7094,
      "袖": 7095,
      "袜": 7096,
      "袞": 7097,
      "被": 7098,
      "袭": 7099,
      "袱": 7100,
      "袴": 7101,
      "裁": 7102,
      "裂": 7103,
      "装": 7104,
      "裏": 7105,
      "裔": 7106,
      "裕": 7107,
      "裘": 7108,
      "裙": 7109,
      "補": 7110,
      "裝": 7111,
      "裟": 7112,
      "裡": 7113,
      "裤": 7114,
      "裨": 7115,
      "裳": 7116,
      "裴": 7117,
      "裸": 7118,
      "裹": 7119,
      "製": 7120,
      "裾": 7121,
      "複": 7122,
      "褐": 7123,
      "褒": 7124,
      "褚": 7125,
      "褥": 7126,
      "褪": 7127,
      "褫": 7128,
      "褲": 7129,
      "褶": 7130,
      "褻": 7131,
      "襄": 7132,
      "襖": 7133,
      "襟": 7134,
      "襪": 7135,
      "襯": 7136,
      "襲": 7137,
      "西": 7138,
      "要": 7139,
      "覃": 7140,
      "覆": 7141,
      "覇": 7142,
      "見": 7143,
      "規": 7144,
      "覓": 7145,
      "視": 7146,
      "覗": 7147,
      "覚": 7148,
      "覧": 7149,
      "親": 7150,
      "覲": 7151,
      "観": 7152,
      "覺": 7153,
      "覽": 7154,
      "觀": 7155,
      "见": 7156,
      "观": 7157,
      "规": 7158,
      "觅": 7159,
      "视": 7160,
      "览": 7161,
      "觉": 7162,
      "觐": 7163,
      "角": 7164,
      "解": 7165,
      "触": 7166,
      "觸": 7167,
      "言": 7168,
      "訂": 7169,
      "訃": 7170,
      "計": 7171,
      "訊": 7172,
      "討": 7173,
      "訓": 7174,
      "訖": 7175,
      "託": 7176,
      "記": 7177,
      "訛": 7178,
      "訝": 7179,
      "訟": 7180,
      "訣": 7181,
      "訥": 7182,
      "訪": 7183,
      "設": 7184,
      "許": 7185,
      "訳": 7186,
      "訴": 7187,
      "訶": 7188,
      "診": 7189,
      "註": 7190,
      "証": 7191,
      "詐": 7192,
      "詔": 7193,
      "評": 7194,
      "詛": 7195,
      "詞": 7196,
      "詠": 7197,
      "詡": 7198,
      "詢": 7199,
      "詣": 7200,
      "試": 7201,
      "詩": 7202,
      "詫": 7203,
      "詭": 7204,
      "詮": 7205,
      "詰": 7206,
      "話": 7207,
      "該": 7208,
      "詳": 7209,
      "詹": 7210,
      "誅": 7211,
      "誇": 7212,
      "誉": 7213,
      "誌": 7214,
      "認": 7215,
      "誑": 7216,
      "誓": 7217,
      "誕": 7218,
      "誘": 7219,
      "語": 7220,
      "誠": 7221,
      "誡": 7222,
      "誣": 7223,
      "誤": 7224,
      "誥": 7225,
      "誦": 7226,
      "誨": 7227,
      "說": 7228,
      "説": 7229,
      "読": 7230,
      "誰": 7231,
      "課": 7232,
      "誹": 7233,
      "誼": 7234,
      "調": 7235,
      "諂": 7236,
      "談": 7237,
      "請": 7238,
      "諌": 7239,
      "諍": 7240,
      "諏": 7241,
      "諒": 7242,
      "論": 7243,
      "諜": 7244,
      "諡": 7245,
      "諦": 7246,
      "諧": 7247,
      "諫": 7248,
      "諭": 7249,
      "諮": 7250,
      "諱": 7251,
      "諶": 7252,
      "諷": 7253,
      "諸": 7254,
      "諺": 7255,
      "諾": 7256,
      "謀": 7257,
      "謁": 7258,
      "謂": 7259,
      "謄": 7260,
      "謊": 7261,
      "謎": 7262,
      "謐": 7263,
      "謗": 7264,
      "謙": 7265,
      "謚": 7266,
      "講": 7267,
      "謝": 7268,
      "謠": 7269,
      "謡": 7270,
      "謨": 7271,
      "謫": 7272,
      "謬": 7273,
      "謳": 7274,
      "謹": 7275,
      "證": 7276,
      "譏": 7277,
      "識": 7278,
      "譙": 7279,
      "譚": 7280,
      "譜": 7281,
      "警": 7282,
      "譬": 7283,
      "譯": 7284,
      "議": 7285,
      "譲": 7286,
      "譴": 7287,
      "護": 7288,
      "譽": 7289,
      "讀": 7290,
      "讃": 7291,
      "變": 7292,
      "讐": 7293,
      "讒": 7294,
      "讓": 7295,
      "讚": 7296,
      "讞": 7297,
      "计": 7298,
      "订": 7299,
      "认": 7300,
      "讥": 7301,
      "讨": 7302,
      "让": 7303,
      "讫": 7304,
      "训": 7305,
      "议": 7306,
      "讯": 7307,
      "记": 7308,
      "讲": 7309,
      "讳": 7310,
      "讶": 7311,
      "讷": 7312,
      "许": 7313,
      "讹": 7314,
      "论": 7315,
      "讼": 7316,
      "讽": 7317,
      "设": 7318,
      "访": 7319,
      "诀": 7320,
      "证": 7321,
      "诃": 7322,
      "评": 7323,
      "诅": 7324,
      "识": 7325,
      "诈": 7326,
      "诉": 7327,
      "诊": 7328,
      "词": 7329,
      "诏": 7330,
      "译": 7331,
      "诒": 7332,
      "试": 7333,
      "诗": 7334,
      "诘": 7335,
      "诚": 7336,
      "诛": 7337,
      "话": 7338,
      "诞": 7339,
      "诠": 7340,
      "诡": 7341,
      "询": 7342,
      "诣": 7343,
      "该": 7344,
      "详": 7345,
      "诩": 7346,
      "诫": 7347,
      "诬": 7348,
      "语": 7349,
      "误": 7350,
      "诰": 7351,
      "诱": 7352,
      "诲": 7353,
      "说": 7354,
      "诵": 7355,
      "请": 7356,
      "诸": 7357,
      "诹": 7358,
      "诺": 7359,
      "读": 7360,
      "诽": 7361,
      "课": 7362,
      "谁": 7363,
      "调": 7364,
      "谅": 7365,
      "谈": 7366,
      "谊": 7367,
      "谋": 7368,
      "谍": 7369,
      "谎": 7370,
      "谏": 7371,
      "谐": 7372,
      "谒": 7373,
      "谓": 7374,
      "谔": 7375,
      "谕": 7376,
      "谚": 7377,
      "谛": 7378,
      "谜": 7379,
      "谟": 7380,
      "谢": 7381,
      "谣": 7382,
      "谤": 7383,
      "谥": 7384,
      "谦": 7385,
      "谨": 7386,
      "谪": 7387,
      "谬": 7388,
      "谭": 7389,
      "谯": 7390,
      "谱": 7391,
      "谳": 7392,
      "谴": 7393,
      "谷": 7394,
      "谿": 7395,
      "豁": 7396,
      "豆": 7397,
      "豈": 7398,
      "豊": 7399,
      "豌": 7400,
      "豎": 7401,
      "豐": 7402,
      "豔": 7403,
      "豚": 7404,
      "象": 7405,
      "豪": 7406,
      "豫": 7407,
      "豬": 7408,
      "豹": 7409,
      "豺": 7410,
      "貂": 7411,
      "貌": 7412,
      "貓": 7413,
      "貘": 7414,
      "貝": 7415,
      "貞": 7416,
      "負": 7417,
      "財": 7418,
      "貢": 7419,
      "貧": 7420,
      "貨": 7421,
      "販": 7422,
      "貪": 7423,
      "貫": 7424,
      "責": 7425,
      "貯": 7426,
      "貰": 7427,
      "貳": 7428,
      "貴": 7429,
      "貶": 7430,
      "買": 7431,
      "貸": 7432,
      "費": 7433,
      "貼": 7434,
      "貽": 7435,
      "貿": 7436,
      "賀": 7437,
      "賁": 7438,
      "賂": 7439,
      "賃": 7440,
      "賄": 7441,
      "資": 7442,
      "賈": 7443,
      "賊": 7444,
      "賑": 7445,
      "賓": 7446,
      "賚": 7447,
      "賛": 7448,
      "賜": 7449,
      "賞": 7450,
      "賠": 7451,
      "賡": 7452,
      "賢": 7453,
      "賣": 7454,
      "賤": 7455,
      "賦": 7456,
      "質": 7457,
      "賭": 7458,
      "賴": 7459,
      "賺": 7460,
      "購": 7461,
      "賽": 7462,
      "贄": 7463,
      "贅": 7464,
      "贈": 7465,
      "贊": 7466,
      "贋": 7467,
      "贍": 7468,
      "贏": 7469,
      "贓": 7470,
      "贖": 7471,
      "贛": 7472,
      "贝": 7473,
      "贞": 7474,
      "负": 7475,
      "贡": 7476,
      "财": 7477,
      "责": 7478,
      "贤": 7479,
      "败": 7480,
      "账": 7481,
      "货": 7482,
      "质": 7483,
      "贩": 7484,
      "贪": 7485,
      "贫": 7486,
      "贬": 7487,
      "购": 7488,
      "贮": 7489,
      "贯": 7490,
      "贰": 7491,
      "贱": 7492,
      "贲": 7493,
      "贴": 7494,
      "贵": 7495,
      "贷": 7496,
      "贸": 7497,
      "费": 7498,
      "贺": 7499,
      "贻": 7500,
      "贼": 7501,
      "贾": 7502,
      "贿": 7503,
      "赁": 7504,
      "赂": 7505,
      "赃": 7506,
      "资": 7507,
      "赈": 7508,
      "赉": 7509,
      "赋": 7510,
      "赌": 7511,
      "赎": 7512,
      "赏": 7513,
      "赐": 7514,
      "赓": 7515,
      "赔": 7516,
      "赖": 7517,
      "赚": 7518,
      "赛": 7519,
      "赞": 7520,
      "赠": 7521,
      "赢": 7522,
      "赣": 7523,
      "赤": 7524,
      "赦": 7525,
      "赫": 7526,
      "赭": 7527,
      "走": 7528,
      "赳": 7529,
      "赴": 7530,
      "赵": 7531,
      "赶": 7532,
      "起": 7533,
      "趁": 7534,
      "超": 7535,
      "越": 7536,
      "趋": 7537,
      "趕": 7538,
      "趙": 7539,
      "趟": 7540,
      "趣": 7541,
      "趨": 7542,
      "足": 7543,
      "趴": 7544,
      "趾": 7545,
      "跃": 7546,
      "跆": 7547,
      "跋": 7548,
      "跌": 7549,
      "跑": 7550,
      "跖": 7551,
      "跛": 7552,
      "距": 7553,
      "跟": 7554,
      "跡": 7555,
      "跤": 7556,
      "跨": 7557,
      "跪": 7558,
      "路": 7559,
      "跳": 7560,
      "践": 7561,
      "跻": 7562,
      "踊": 7563,
      "踏": 7564,
      "踐": 7565,
      "踝": 7566,
      "踞": 7567,
      "踢": 7568,
      "踩": 7569,
      "踪": 7570,
      "踴": 7571,
      "踵": 7572,
      "蹂": 7573,
      "蹄": 7574,
      "蹇": 7575,
      "蹈": 7576,
      "蹊": 7577,
      "蹟": 7578,
      "蹤": 7579,
      "蹦": 7580,
      "蹲": 7581,
      "蹴": 7582,
      "蹼": 7583,
      "躁": 7584,
      "躇": 7585,
      "躊": 7586,
      "躋": 7587,
      "躍": 7588,
      "躙": 7589,
      "身": 7590,
      "躬": 7591,
      "躯": 7592,
      "躲": 7593,
      "躺": 7594,
      "軀": 7595,
      "車": 7596,
      "軋": 7597,
      "軌": 7598,
      "軍": 7599,
      "軒": 7600,
      "軔": 7601,
      "軛": 7602,
      "軟": 7603,
      "転": 7604,
      "軫": 7605,
      "軸": 7606,
      "軻": 7607,
      "軼": 7608,
      "軽": 7609,
      "軾": 7610,
      "較": 7611,
      "載": 7612,
      "輌": 7613,
      "輒": 7614,
      "輓": 7615,
      "輔": 7616,
      "輕": 7617,
      "輛": 7618,
      "輜": 7619,
      "輝": 7620,
      "輟": 7621,
      "輦": 7622,
      "輩": 7623,
      "輪": 7624,
      "輯": 7625,
      "輸": 7626,
      "輻": 7627,
      "輾": 7628,
      "輿": 7629,
      "轄": 7630,
      "轅": 7631,
      "轉": 7632,
      "轍": 7633,
      "轎": 7634,
      "轟": 7635,
      "轢": 7636,
      "车": 7637,
      "轧": 7638,
      "轨": 7639,
      "轩": 7640,
      "转": 7641,
      "轭": 7642,
      "轮": 7643,
      "软": 7644,
      "轰": 7645,
      "轴": 7646,
      "轶": 7647,
      "轸": 7648,
      "轻": 7649,
      "轼": 7650,
      "载": 7651,
      "轿": 7652,
      "较": 7653,
      "辄": 7654,
      "辅": 7655,
      "辆": 7656,
      "辈": 7657,
      "辉": 7658,
      "辍": 7659,
      "辐": 7660,
      "辑": 7661,
      "输": 7662,
      "辕": 7663,
      "辖": 7664,
      "辗": 7665,
      "辙": 7666,
      "辛": 7667,
      "辜": 7668,
      "辞": 7669,
      "辟": 7670,
      "辣": 7671,
      "辦": 7672,
      "辨": 7673,
      "辩": 7674,
      "辫": 7675,
      "辭": 7676,
      "辮": 7677,
      "辯": 7678,
      "辰": 7679,
      "辱": 7680,
      "農": 7681,
      "边": 7682,
      "辺": 7683,
      "辻": 7684,
      "込": 7685,
      "辽": 7686,
      "达": 7687,
      "辿": 7688,
      "迁": 7689,
      "迂": 7690,
      "迄": 7691,
      "迅": 7692,
      "过": 7693,
      "迈": 7694,
      "迎": 7695,
      "运": 7696,
      "近": 7697,
      "返": 7698,
      "还": 7699,
      "这": 7700,
      "进": 7701,
      "远": 7702,
      "违": 7703,
      "连": 7704,
      "迟": 7705,
      "迥": 7706,
      "迦": 7707,
      "迩": 7708,
      "迪": 7709,
      "迫": 7710,
      "迭": 7711,
      "述": 7712,
      "迴": 7713,
      "迷": 7714,
      "迹": 7715,
      "迺": 7716,
      "追": 7717,
      "退": 7718,
      "送": 7719,
      "适": 7720,
      "逃": 7721,
      "逅": 7722,
      "逆": 7723,
      "选": 7724,
      "逊": 7725,
      "逍": 7726,
      "透": 7727,
      "逐": 7728,
      "递": 7729,
      "逓": 7730,
      "途": 7731,
      "逕": 7732,
      "逗": 7733,
      "這": 7734,
      "通": 7735,
      "逛": 7736,
      "逝": 7737,
      "逞": 7738,
      "速": 7739,
      "造": 7740,
      "逢": 7741,
      "連": 7742,
      "逮": 7743,
      "週": 7744,
      "進": 7745,
      "逵": 7746,
      "逸": 7747,
      "逻": 7748,
      "逼": 7749,
      "逾": 7750,
      "遁": 7751,
      "遂": 7752,
      "遅": 7753,
      "遇": 7754,
      "遊": 7755,
      "運": 7756,
      "遍": 7757,
      "過": 7758,
      "遏": 7759,
      "遐": 7760,
      "道": 7761,
      "達": 7762,
      "違": 7763,
      "遗": 7764,
      "遙": 7765,
      "遜": 7766,
      "遞": 7767,
      "遠": 7768,
      "遡": 7769,
      "遣": 7770,
      "遥": 7771,
      "適": 7772,
      "遭": 7773,
      "遮": 7774,
      "遲": 7775,
      "遴": 7776,
      "遵": 7777,
      "遷": 7778,
      "選": 7779,
      "遹": 7780,
      "遺": 7781,
      "遼": 7782,
      "遽": 7783,
      "避": 7784,
      "邀": 7785,
      "邁": 7786,
      "邂": 7787,
      "邃": 7788,
      "還": 7789,
      "邇": 7790,
      "邈": 7791,
      "邉": 7792,
      "邊": 7793,
      "邏": 7794,
      "邑": 7795,
      "邓": 7796,
      "邕": 7797,
      "邛": 7798,
      "邝": 7799,
      "邠": 7800,
      "邢": 7801,
      "那": 7802,
      "邦": 7803,
      "邨": 7804,
      "邪": 7805,
      "邬": 7806,
      "邮": 7807,
      "邯": 7808,
      "邰": 7809,
      "邱": 7810,
      "邳": 7811,
      "邵": 7812,
      "邸": 7813,
      "邹": 7814,
      "邺": 7815,
      "邻": 7816,
      "邾": 7817,
      "郁": 7818,
      "郃": 7819,
      "郊": 7820,
      "郎": 7821,
      "郑": 7822,
      "郗": 7823,
      "郜": 7824,
      "郝": 7825,
      "郞": 7826,
      "郡": 7827,
      "郢": 7828,
      "郤": 7829,
      "郧": 7830,
      "部": 7831,
      "郭": 7832,
      "郯": 7833,
      "郴": 7834,
      "郵": 7835,
      "郷": 7836,
      "郸": 7837,
      "都": 7838,
      "鄂": 7839,
      "鄉": 7840,
      "鄒": 7841,
      "鄔": 7842,
      "鄕": 7843,
      "鄖": 7844,
      "鄙": 7845,
      "鄚": 7846,
      "鄞": 7847,
      "鄢": 7848,
      "鄧": 7849,
      "鄭": 7850,
      "鄯": 7851,
      "鄰": 7852,
      "鄱": 7853,
      "鄲": 7854,
      "鄴": 7855,
      "鄺": 7856,
      "酉": 7857,
      "酋": 7858,
      "酌": 7859,
      "配": 7860,
      "酎": 7861,
      "酐": 7862,
      "酒": 7863,
      "酔": 7864,
      "酗": 7865,
      "酚": 7866,
      "酢": 7867,
      "酣": 7868,
      "酥": 7869,
      "酪": 7870,
      "酬": 7871,
      "酮": 7872,
      "酯": 7873,
      "酰": 7874,
      "酱": 7875,
      "酵": 7876,
      "酶": 7877,
      "酷": 7878,
      "酸": 7879,
      "酿": 7880,
      "醃": 7881,
      "醇": 7882,
      "醉": 7883,
      "醋": 7884,
      "醍": 7885,
      "醐": 7886,
      "醒": 7887,
      "醚": 7888,
      "醛": 7889,
      "醜": 7890,
      "醣": 7891,
      "醤": 7892,
      "醫": 7893,
      "醬": 7894,
      "醮": 7895,
      "醯": 7896,
      "醴": 7897,
      "醸": 7898,
      "釀": 7899,
      "釁": 7900,
      "采": 7901,
      "釈": 7902,
      "釉": 7903,
      "释": 7904,
      "釋": 7905,
      "里": 7906,
      "重": 7907,
      "野": 7908,
      "量": 7909,
      "釐": 7910,
      "金": 7911,
      "釗": 7912,
      "釘": 7913,
      "釜": 7914,
      "針": 7915,
      "釣": 7916,
      "釧": 7917,
      "釵": 7918,
      "鈉": 7919,
      "鈍": 7920,
      "鈔": 7921,
      "鈕": 7922,
      "鈞": 7923,
      "鈣": 7924,
      "鈦": 7925,
      "鈴": 7926,
      "鈷": 7927,
      "鈺": 7928,
      "鈾": 7929,
      "鈿": 7930,
      "鉀": 7931,
      "鉄": 7932,
      "鉅": 7933,
      "鉈": 7934,
      "鉉": 7935,
      "鉑": 7936,
      "鉗": 7937,
      "鉛": 7938,
      "鉞": 7939,
      "鉢": 7940,
      "鉤": 7941,
      "鉱": 7942,
      "鉴": 7943,
      "鉻": 7944,
      "鉾": 7945,
      "銀": 7946,
      "銃": 7947,
      "銅": 7948,
      "銑": 7949,
      "銓": 7950,
      "銖": 7951,
      "銘": 7952,
      "銚": 7953,
      "銜": 7954,
      "銨": 7955,
      "銭": 7956,
      "銮": 7957,
      "銳": 7958,
      "銷": 7959,
      "銹": 7960,
      "鋁": 7961,
      "鋅": 7962,
      "鋏": 7963,
      "鋒": 7964,
      "鋤": 7965,
      "鋪": 7966,
      "鋭": 7967,
      "鋰": 7968,
      "鋳": 7969,
      "鋸": 7970,
      "鋼": 7971,
      "錄": 7972,
      "錆": 7973,
      "錐": 7974,
      "錕": 7975,
      "錘": 7976,
      "錚": 7977,
      "錠": 7978,
      "錢": 7979,
      "錦": 7980,
      "錨": 7981,
      "錫": 7982,
      "錬": 7983,
      "錮": 7984,
      "錯": 7985,
      "録": 7986,
      "錳": 7987,
      "錶": 7988,
      "鍊": 7989,
      "鍋": 7990,
      "鍍": 7991,
      "鍔": 7992,
      "鍛": 7993,
      "鍬": 7994,
      "鍮": 7995,
      "鍵": 7996,
      "鍼": 7997,
      "鍾": 7998,
      "鎂": 7999,
      "鎊": 8000,
      "鎌": 8001,
      "鎏": 8002,
      "鎔": 8003,
      "鎖": 8004,
      "鎗": 8005,
      "鎚": 8006,
      "鎢": 8007,
      "鎧": 8008,
      "鎬": 8009,
      "鎭": 8010,
      "鎮": 8011,
      "鎳": 8012,
      "鏃": 8013,
      "鏈": 8014,
      "鏑": 8015,
      "鏗": 8016,
      "鏞": 8017,
      "鏟": 8018,
      "鏡": 8019,
      "鏢": 8020,
      "鏽": 8021,
      "鐘": 8022,
      "鐮": 8023,
      "鐳": 8024,
      "鐵": 8025,
      "鐸": 8026,
      "鑄": 8027,
      "鑑": 8028,
      "鑒": 8029,
      "鑣": 8030,
      "鑫": 8031,
      "鑰": 8032,
      "鑲": 8033,
      "鑼": 8034,
      "鑽": 8035,
      "鑾": 8036,
      "鑿": 8037,
      "针": 8038,
      "钉": 8039,
      "钊": 8040,
      "钏": 8041,
      "钓": 8042,
      "钗": 8043,
      "钙": 8044,
      "钚": 8045,
      "钛": 8046,
      "钜": 8047,
      "钝": 8048,
      "钞": 8049,
      "钟": 8050,
      "钠": 8051,
      "钢": 8052,
      "钥": 8053,
      "钦": 8054,
      "钧": 8055,
      "钨": 8056,
      "钩": 8057,
      "钮": 8058,
      "钰": 8059,
      "钱": 8060,
      "钳": 8061,
      "钴": 8062,
      "钵": 8063,
      "钺": 8064,
      "钻": 8065,
      "钾": 8066,
      "铀": 8067,
      "铁": 8068,
      "铂": 8069,
      "铃": 8070,
      "铅": 8071,
      "铉": 8072,
      "铎": 8073,
      "铜": 8074,
      "铝": 8075,
      "铠": 8076,
      "铨": 8077,
      "铬": 8078,
      "铭": 8079,
      "铮": 8080,
      "铲": 8081,
      "铳": 8082,
      "铵": 8083,
      "银": 8084,
      "铸": 8085,
      "铺": 8086,
      "链": 8087,
      "铿": 8088,
      "销": 8089,
      "锁": 8090,
      "锂": 8091,
      "锄": 8092,
      "锅": 8093,
      "锈": 8094,
      "锋": 8095,
      "锌": 8096,
      "锐": 8097,
      "错": 8098,
      "锚": 8099,
      "锟": 8100,
      "锡": 8101,
      "锢": 8102,
      "锣": 8103,
      "锤": 8104,
      "锥": 8105,
      "锦": 8106,
      "锭": 8107,
      "键": 8108,
      "锯": 8109,
      "锰": 8110,
      "锷": 8111,
      "锺": 8112,
      "锻": 8113,
      "镀": 8114,
      "镁": 8115,
      "镇": 8116,
      "镍": 8117,
      "镐": 8118,
      "镑": 8119,
      "镕": 8120,
      "镖": 8121,
      "镛": 8122,
      "镜": 8123,
      "镭": 8124,
      "镰": 8125,
      "镶": 8126,
      "長": 8127,
      "长": 8128,
      "門": 8129,
      "閃": 8130,
      "閆": 8131,
      "閉": 8132,
      "開": 8133,
      "閏": 8134,
      "閑": 8135,
      "閒": 8136,
      "間": 8137,
      "閔": 8138,
      "閘": 8139,
      "関": 8140,
      "閣": 8141,
      "閤": 8142,
      "閥": 8143,
      "閨": 8144,
      "閩": 8145,
      "閬": 8146,
      "閭": 8147,
      "閱": 8148,
      "閲": 8149,
      "閻": 8150,
      "閾": 8151,
      "闆": 8152,
      "闇": 8153,
      "闊": 8154,
      "闍": 8155,
      "闐": 8156,
      "闕": 8157,
      "闖": 8158,
      "闘": 8159,
      "關": 8160,
      "闡": 8161,
      "闢": 8162,
      "门": 8163,
      "闪": 8164,
      "闫": 8165,
      "闭": 8166,
      "问": 8167,
      "闯": 8168,
      "闰": 8169,
      "闲": 8170,
      "间": 8171,
      "闵": 8172,
      "闷": 8173,
      "闸": 8174,
      "闹": 8175,
      "闺": 8176,
      "闻": 8177,
      "闽": 8178,
      "闾": 8179,
      "阀": 8180,
      "阁": 8181,
      "阅": 8182,
      "阆": 8183,
      "阇": 8184,
      "阉": 8185,
      "阎": 8186,
      "阐": 8187,
      "阔": 8188,
      "阗": 8189,
      "阙": 8190,
      "阜": 8191,
      "队": 8192,
      "阡": 8193,
      "阪": 8194,
      "阮": 8195,
      "阯": 8196,
      "阱": 8197,
      "防": 8198,
      "阳": 8199,
      "阴": 8200,
      "阵": 8201,
      "阶": 8202,
      "阻": 8203,
      "阿": 8204,
      "陀": 8205,
      "陂": 8206,
      "附": 8207,
      "际": 8208,
      "陆": 8209,
      "陇": 8210,
      "陈": 8211,
      "陋": 8212,
      "陌": 8213,
      "降": 8214,
      "限": 8215,
      "陕": 8216,
      "陛": 8217,
      "陝": 8218,
      "陞": 8219,
      "陟": 8220,
      "陡": 8221,
      "院": 8222,
      "陣": 8223,
      "除": 8224,
      "陥": 8225,
      "陨": 8226,
      "险": 8227,
      "陪": 8228,
      "陰": 8229,
      "陲": 8230,
      "陳": 8231,
      "陵": 8232,
      "陶": 8233,
      "陷": 8234,
      "陸": 8235,
      "険": 8236,
      "陽": 8237,
      "隅": 8238,
      "隆": 8239,
      "隈": 8240,
      "隊": 8241,
      "隋": 8242,
      "隍": 8243,
      "階": 8244,
      "随": 8245,
      "隐": 8246,
      "隔": 8247,
      "隕": 8248,
      "隗": 8249,
      "隘": 8250,
      "隙": 8251,
      "際": 8252,
      "障": 8253,
      "隠": 8254,
      "隣": 8255,
      "隧": 8256,
      "隨": 8257,
      "險": 8258,
      "隱": 8259,
      "隴": 8260,
      "隶": 8261,
      "隷": 8262,
      "隸": 8263,
      "隻": 8264,
      "隼": 8265,
      "隽": 8266,
      "难": 8267,
      "雀": 8268,
      "雁": 8269,
      "雄": 8270,
      "雅": 8271,
      "集": 8272,
      "雇": 8273,
      "雉": 8274,
      "雋": 8275,
      "雌": 8276,
      "雍": 8277,
      "雏": 8278,
      "雑": 8279,
      "雒": 8280,
      "雕": 8281,
      "雖": 8282,
      "雙": 8283,
      "雛": 8284,
      "雜": 8285,
      "雞": 8286,
      "離": 8287,
      "難": 8288,
      "雨": 8289,
      "雪": 8290,
      "雫": 8291,
      "雯": 8292,
      "雰": 8293,
      "雲": 8294,
      "雳": 8295,
      "零": 8296,
      "雷": 8297,
      "雹": 8298,
      "電": 8299,
      "雾": 8300,
      "需": 8301,
      "霄": 8302,
      "霆": 8303,
      "震": 8304,
      "霉": 8305,
      "霊": 8306,
      "霍": 8307,
      "霏": 8308,
      "霑": 8309,
      "霓": 8310,
      "霖": 8311,
      "霜": 8312,
      "霞": 8313,
      "霧": 8314,
      "霰": 8315,
      "露": 8316,
      "霸": 8317,
      "霹": 8318,
      "霽": 8319,
      "霾": 8320,
      "靂": 8321,
      "靄": 8322,
      "靈": 8323,
      "靑": 8324,
      "青": 8325,
      "靓": 8326,
      "靖": 8327,
      "静": 8328,
      "靚": 8329,
      "靛": 8330,
      "靜": 8331,
      "非": 8332,
      "靠": 8333,
      "靡": 8334,
      "面": 8335,
      "革": 8336,
      "靭": 8337,
      "靱": 8338,
      "靳": 8339,
      "靴": 8340,
      "靶": 8341,
      "靺": 8342,
      "靼": 8343,
      "鞄": 8344,
      "鞅": 8345,
      "鞆": 8346,
      "鞋": 8347,
      "鞍": 8348,
      "鞏": 8349,
      "鞑": 8350,
      "鞘": 8351,
      "鞠": 8352,
      "鞨": 8353,
      "鞭": 8354,
      "鞮": 8355,
      "韃": 8356,
      "韋": 8357,
      "韌": 8358,
      "韓": 8359,
      "韜": 8360,
      "韦": 8361,
      "韧": 8362,
      "韩": 8363,
      "韬": 8364,
      "韭": 8365,
      "韮": 8366,
      "音": 8367,
      "韵": 8368,
      "韶": 8369,
      "韻": 8370,
      "響": 8371,
      "頁": 8372,
      "頂": 8373,
      "頃": 8374,
      "項": 8375,
      "順": 8376,
      "須": 8377,
      "頊": 8378,
      "頌": 8379,
      "預": 8380,
      "頑": 8381,
      "頒": 8382,
      "頓": 8383,
      "頗": 8384,
      "領": 8385,
      "頚": 8386,
      "頜": 8387,
      "頡": 8388,
      "頤": 8389,
      "頬": 8390,
      "頭": 8391,
      "頰": 8392,
      "頸": 8393,
      "頹": 8394,
      "頻": 8395,
      "頼": 8396,
      "顆": 8397,
      "題": 8398,
      "額": 8399,
      "顎": 8400,
      "顏": 8401,
      "顒": 8402,
      "顔": 8403,
      "顕": 8404,
      "顗": 8405,
      "願": 8406,
      "顛": 8407,
      "類": 8408,
      "顥": 8409,
      "顧": 8410,
      "顫": 8411,
      "顯": 8412,
      "顱": 8413,
      "页": 8414,
      "顶": 8415,
      "顷": 8416,
      "项": 8417,
      "顺": 8418,
      "须": 8419,
      "顽": 8420,
      "顾": 8421,
      "顿": 8422,
      "颁": 8423,
      "颂": 8424,
      "预": 8425,
      "颅": 8426,
      "领": 8427,
      "颇": 8428,
      "颈": 8429,
      "颉": 8430,
      "颊": 8431,
      "颌": 8432,
      "颍": 8433,
      "颐": 8434,
      "频": 8435,
      "颓": 8436,
      "颖": 8437,
      "颗": 8438,
      "题": 8439,
      "颚": 8440,
      "颜": 8441,
      "额": 8442,
      "颠": 8443,
      "颤": 8444,
      "風": 8445,
      "颯": 8446,
      "颱": 8447,
      "颶": 8448,
      "飄": 8449,
      "飆": 8450,
      "风": 8451,
      "飒": 8452,
      "飓": 8453,
      "飘": 8454,
      "飙": 8455,
      "飛": 8456,
      "飞": 8457,
      "食": 8458,
      "飢": 8459,
      "飪": 8460,
      "飯": 8461,
      "飲": 8462,
      "飴": 8463,
      "飼": 8464,
      "飽": 8465,
      "飾": 8466,
      "餃": 8467,
      "餅": 8468,
      "餉": 8469,
      "養": 8470,
      "餌": 8471,
      "餐": 8472,
      "餓": 8473,
      "餘": 8474,
      "餚": 8475,
      "餡": 8476,
      "館": 8477,
      "餵": 8478,
      "餾": 8479,
      "饅": 8480,
      "饉": 8481,
      "饋": 8482,
      "饌": 8483,
      "饑": 8484,
      "饒": 8485,
      "饗": 8486,
      "饥": 8487,
      "饪": 8488,
      "饭": 8489,
      "饮": 8490,
      "饰": 8491,
      "饱": 8492,
      "饲": 8493,
      "饵": 8494,
      "饶": 8495,
      "饷": 8496,
      "饺": 8497,
      "饼": 8498,
      "饿": 8499,
      "馀": 8500,
      "馅": 8501,
      "馆": 8502,
      "馈": 8503,
      "馏": 8504,
      "首": 8505,
      "馗": 8506,
      "香": 8507,
      "馥": 8508,
      "馨": 8509,
      "馬": 8510,
      "馭": 8511,
      "馮": 8512,
      "馱": 8513,
      "馳": 8514,
      "馴": 8515,
      "駁": 8516,
      "駄": 8517,
      "駅": 8518,
      "駆": 8519,
      "駐": 8520,
      "駒": 8521,
      "駕": 8522,
      "駙": 8523,
      "駛": 8524,
      "駝": 8525,
      "駭": 8526,
      "駱": 8527,
      "駿": 8528,
      "騎": 8529,
      "騒": 8530,
      "験": 8531,
      "騙": 8532,
      "騨": 8533,
      "騫": 8534,
      "騰": 8535,
      "騷": 8536,
      "驃": 8537,
      "驅": 8538,
      "驊": 8539,
      "驍": 8540,
      "驒": 8541,
      "驕": 8542,
      "驗": 8543,
      "驚": 8544,
      "驛": 8545,
      "驟": 8546,
      "驢": 8547,
      "驤": 8548,
      "驥": 8549,
      "驪": 8550,
      "马": 8551,
      "驭": 8552,
      "驮": 8553,
      "驯": 8554,
      "驰": 8555,
      "驱": 8556,
      "驳": 8557,
      "驴": 8558,
      "驶": 8559,
      "驸": 8560,
      "驹": 8561,
      "驻": 8562,
      "驼": 8563,
      "驾": 8564,
      "驿": 8565,
      "骁": 8566,
      "骂": 8567,
      "骄": 8568,
      "骅": 8569,
      "骆": 8570,
      "骇": 8571,
      "骊": 8572,
      "验": 8573,
      "骏": 8574,
      "骑": 8575,
      "骗": 8576,
      "骚": 8577,
      "骞": 8578,
      "骠": 8579,
      "骤": 8580,
      "骥": 8581,
      "骧": 8582,
      "骨": 8583,
      "骰": 8584,
      "骷": 8585,
      "骸": 8586,
      "骼": 8587,
      "髄": 8588,
      "髅": 8589,
      "髏": 8590,
      "髑": 8591,
      "髒": 8592,
      "髓": 8593,
      "體": 8594,
      "高": 8595,
      "髙": 8596,
      "髦": 8597,
      "髪": 8598,
      "髭": 8599,
      "髮": 8600,
      "髯": 8601,
      "髷": 8602,
      "髻": 8603,
      "鬃": 8604,
      "鬆": 8605,
      "鬍": 8606,
      "鬘": 8607,
      "鬚": 8608,
      "鬣": 8609,
      "鬥": 8610,
      "鬧": 8611,
      "鬱": 8612,
      "鬼": 8613,
      "魁": 8614,
      "魂": 8615,
      "魃": 8616,
      "魄": 8617,
      "魅": 8618,
      "魍": 8619,
      "魎": 8620,
      "魏": 8621,
      "魔": 8622,
      "魚": 8623,
      "魨": 8624,
      "魮": 8625,
      "魯": 8626,
      "魷": 8627,
      "鮃": 8628,
      "鮋": 8629,
      "鮎": 8630,
      "鮑": 8631,
      "鮟": 8632,
      "鮠": 8633,
      "鮡": 8634,
      "鮨": 8635,
      "鮫": 8636,
      "鮭": 8637,
      "鮮": 8638,
      "鯉": 8639,
      "鯊": 8640,
      "鯖": 8641,
      "鯙": 8642,
      "鯛": 8643,
      "鯡": 8644,
      "鯤": 8645,
      "鯨": 8646,
      "鯰": 8647,
      "鯱": 8648,
      "鯽": 8649,
      "鰂": 8650,
      "鰈": 8651,
      "鰍": 8652,
      "鰐": 8653,
      "鰓": 8654,
      "鰕": 8655,
      "鰨": 8656,
      "鰭": 8657,
      "鰲": 8658,
      "鰹": 8659,
      "鰺": 8660,
      "鰻": 8661,
      "鱂": 8662,
      "鱇": 8663,
      "鱈": 8664,
      "鱉": 8665,
      "鱒": 8666,
      "鱔": 8667,
      "鱗": 8668,
      "鱧": 8669,
      "鱨": 8670,
      "鱲": 8671,
      "鱷": 8672,
      "鱸": 8673,
      "鱼": 8674,
      "鱿": 8675,
      "鲀": 8676,
      "鲁": 8677,
      "鲆": 8678,
      "鲇": 8679,
      "鲈": 8680,
      "鲉": 8681,
      "鲍": 8682,
      "鲑": 8683,
      "鲛": 8684,
      "鲜": 8685,
      "鲤": 8686,
      "鲨": 8687,
      "鲫": 8688,
      "鲱": 8689,
      "鲶": 8690,
      "鲷": 8691,
      "鲸": 8692,
      "鲽": 8693,
      "鲿": 8694,
      "鳃": 8695,
      "鳄": 8696,
      "鳅": 8697,
      "鳉": 8698,
      "鳌": 8699,
      "鳍": 8700,
      "鳎": 8701,
      "鳕": 8702,
      "鳖": 8703,
      "鳗": 8704,
      "鳚": 8705,
      "鳝": 8706,
      "鳞": 8707,
      "鳢": 8708,
      "鳥": 8709,
      "鳩": 8710,
      "鳳": 8711,
      "鳴": 8712,
      "鳶": 8713,
      "鴇": 8714,
      "鴉": 8715,
      "鴎": 8716,
      "鴛": 8717,
      "鴞": 8718,
      "鴦": 8719,
      "鴨": 8720,
      "鴻": 8721,
      "鴿": 8722,
      "鵑": 8723,
      "鵙": 8724,
      "鵜": 8725,
      "鵝": 8726,
      "鵠": 8727,
      "鵡": 8728,
      "鵬": 8729,
      "鵰": 8730,
      "鵲": 8731,
      "鶇": 8732,
      "鶉": 8733,
      "鶏": 8734,
      "鶥": 8735,
      "鶯": 8736,
      "鶴": 8737,
      "鶻": 8738,
      "鷗": 8739,
      "鷲": 8740,
      "鷹": 8741,
      "鷺": 8742,
      "鸚": 8743,
      "鸞": 8744,
      "鸟": 8745,
      "鸠": 8746,
      "鸡": 8747,
      "鸢": 8748,
      "鸣": 8749,
      "鸥": 8750,
      "鸦": 8751,
      "鸫": 8752,
      "鸭": 8753,
      "鸮": 8754,
      "鸯": 8755,
      "鸳": 8756,
      "鸽": 8757,
      "鸾": 8758,
      "鸿": 8759,
      "鹃": 8760,
      "鹅": 8761,
      "鹈": 8762,
      "鹉": 8763,
      "鹊": 8764,
      "鹏": 8765,
      "鹘": 8766,
      "鹛": 8767,
      "鹤": 8768,
      "鹦": 8769,
      "鹫": 8770,
      "鹭": 8771,
      "鹰": 8772,
      "鹵": 8773,
      "鹸": 8774,
      "鹹": 8775,
      "鹼": 8776,
      "鹽": 8777,
      "鹿": 8778,
      "麋": 8779,
      "麒": 8780,
      "麓": 8781,
      "麗": 8782,
      "麝": 8783,
      "麟": 8784,
      "麤": 8785,
      "麥": 8786,
      "麦": 8787,
      "麴": 8788,
      "麵": 8789,
      "麹": 8790,
      "麺": 8791,
      "麻": 8792,
      "麼": 8793,
      "麽": 8794,
      "麾": 8795,
      "麿": 8796,
      "黃": 8797,
      "黄": 8798,
      "黍": 8799,
      "黎": 8800,
      "黏": 8801,
      "黑": 8802,
      "黒": 8803,
      "黔": 8804,
      "默": 8805,
      "黙": 8806,
      "黛": 8807,
      "黜": 8808,
      "點": 8809,
      "黨": 8810,
      "黯": 8811,
      "黴": 8812,
      "黻": 8813,
      "鼎": 8814,
      "鼐": 8815,
      "鼓": 8816,
      "鼠": 8817,
      "鼩": 8818,
      "鼬": 8819,
      "鼻": 8820,
      "齊": 8821,
      "齋": 8822,
      "齐": 8823,
      "齒": 8824,
      "齡": 8825,
      "齢": 8826,
      "齣": 8827,
      "齦": 8828,
      "齧": 8829,
      "齿": 8830,
      "龄": 8831,
      "龈": 8832,
      "龍": 8833,
      "龐": 8834,
      "龔": 8835,
      "龕": 8836,
      "龙": 8837,
      "龚": 8838,
      "龛": 8839,
      "龜": 8840,
      "龟": 8841,
      "龢": 8842,
      "가": 8843,
      "각": 8844,
      "간": 8845,
      "갇": 8846,
      "갈": 8847,
      "감": 8848,
      "갑": 8849,
      "값": 8850,
      "갓": 8851,
      "갔": 8852,
      "강": 8853,
      "갖": 8854,
      "같": 8855,
      "갚": 8856,
      "개": 8857,
      "객": 8858,
      "갤": 8859,
      "갯": 8860,
      "갱": 8861,
      "걀": 8862,
      "거": 8863,
      "걱": 8864,
      "건": 8865,
      "걷": 8866,
      "걸": 8867,
      "검": 8868,
      "겁": 8869,
      "것": 8870,
      "겉": 8871,
      "게": 8872,
      "겐": 8873,
      "겔": 8874,
      "겟": 8875,
      "겠": 8876,
      "겨": 8877,
      "격": 8878,
      "겪": 8879,
      "견": 8880,
      "결": 8881,
      "겸": 8882,
      "겹": 8883,
      "겼": 8884,
      "경": 8885,
      "곁": 8886,
      "계": 8887,
      "고": 8888,
      "곡": 8889,
      "곤": 8890,
      "곧": 8891,
      "골": 8892,
      "곰": 8893,
      "곱": 8894,
      "곳": 8895,
      "공": 8896,
      "곶": 8897,
      "과": 8898,
      "곽": 8899,
      "관": 8900,
      "괄": 8901,
      "괌": 8902,
      "광": 8903,
      "괜": 8904,
      "괴": 8905,
      "굉": 8906,
      "교": 8907,
      "구": 8908,
      "국": 8909,
      "군": 8910,
      "굳": 8911,
      "굴": 8912,
      "굵": 8913,
      "굽": 8914,
      "굿": 8915,
      "궁": 8916,
      "권": 8917,
      "궐": 8918,
      "궤": 8919,
      "귀": 8920,
      "귄": 8921,
      "규": 8922,
      "균": 8923,
      "그": 8924,
      "극": 8925,
      "근": 8926,
      "글": 8927,
      "금": 8928,
      "급": 8929,
      "긋": 8930,
      "긍": 8931,
      "기": 8932,
      "긴": 8933,
      "길": 8934,
      "김": 8935,
      "깁": 8936,
      "깃": 8937,
      "깊": 8938,
      "까": 8939,
      "깎": 8940,
      "깐": 8941,
      "깔": 8942,
      "깜": 8943,
      "깝": 8944,
      "깥": 8945,
      "깨": 8946,
      "꺼": 8947,
      "꺾": 8948,
      "껍": 8949,
      "껏": 8950,
      "께": 8951,
      "껴": 8952,
      "꼈": 8953,
      "꼬": 8954,
      "꼭": 8955,
      "꼴": 8956,
      "꼼": 8957,
      "꼽": 8958,
      "꽃": 8959,
      "꽤": 8960,
      "꾀": 8961,
      "꾸": 8962,
      "꾼": 8963,
      "꿀": 8964,
      "꿈": 8965,
      "꿔": 8966,
      "꿨": 8967,
      "뀌": 8968,
      "뀐": 8969,
      "끄": 8970,
      "끈": 8971,
      "끊": 8972,
      "끌": 8973,
      "끓": 8974,
      "끔": 8975,
      "끗": 8976,
      "끝": 8977,
      "끼": 8978,
      "낀": 8979,
      "낄": 8980,
      "낌": 8981,
      "나": 8982,
      "낙": 8983,
      "난": 8984,
      "날": 8985,
      "낡": 8986,
      "남": 8987,
      "납": 8988,
      "낫": 8989,
      "났": 8990,
      "낭": 8991,
      "낮": 8992,
      "낯": 8993,
      "낱": 8994,
      "낳": 8995,
      "내": 8996,
      "낸": 8997,
      "낼": 8998,
      "냄": 8999,
      "냈": 9000,
      "냉": 9001,
      "냐": 9002,
      "냥": 9003,
      "너": 9004,
      "넌": 9005,
      "널": 9006,
      "넓": 9007,
      "넘": 9008,
      "넛": 9009,
      "넣": 9010,
      "네": 9011,
      "넥": 9012,
      "넨": 9013,
      "넬": 9014,
      "넷": 9015,
      "녀": 9016,
      "녁": 9017,
      "년": 9018,
      "념": 9019,
      "녔": 9020,
      "녕": 9021,
      "노": 9022,
      "녹": 9023,
      "논": 9024,
      "놀": 9025,
      "놈": 9026,
      "농": 9027,
      "높": 9028,
      "놓": 9029,
      "뇌": 9030,
      "뇨": 9031,
      "누": 9032,
      "눅": 9033,
      "눈": 9034,
      "눌": 9035,
      "눠": 9036,
      "뉘": 9037,
      "뉜": 9038,
      "뉴": 9039,
      "늄": 9040,
      "느": 9041,
      "늑": 9042,
      "는": 9043,
      "늘": 9044,
      "늙": 9045,
      "능": 9046,
      "늦": 9047,
      "늬": 9048,
      "니": 9049,
      "닉": 9050,
      "닌": 9051,
      "닐": 9052,
      "님": 9053,
      "닛": 9054,
      "닝": 9055,
      "다": 9056,
      "닥": 9057,
      "닦": 9058,
      "단": 9059,
      "닫": 9060,
      "달": 9061,
      "닭": 9062,
      "닮": 9063,
      "담": 9064,
      "답": 9065,
      "닷": 9066,
      "당": 9067,
      "닿": 9068,
      "대": 9069,
      "댄": 9070,
      "댈": 9071,
      "댐": 9072,
      "댓": 9073,
      "더": 9074,
      "덕": 9075,
      "던": 9076,
      "덜": 9077,
      "덟": 9078,
      "덤": 9079,
      "덧": 9080,
      "덩": 9081,
      "덮": 9082,
      "데": 9083,
      "덱": 9084,
      "덴": 9085,
      "델": 9086,
      "도": 9087,
      "독": 9088,
      "돈": 9089,
      "돋": 9090,
      "돌": 9091,
      "돔": 9092,
      "돕": 9093,
      "돗": 9094,
      "동": 9095,
      "돼": 9096,
      "됐": 9097,
      "되": 9098,
      "된": 9099,
      "될": 9100,
      "됨": 9101,
      "두": 9102,
      "둑": 9103,
      "둔": 9104,
      "둘": 9105,
      "둠": 9106,
      "둥": 9107,
      "뒀": 9108,
      "뒤": 9109,
      "뒷": 9110,
      "듀": 9111,
      "듈": 9112,
      "드": 9113,
      "득": 9114,
      "든": 9115,
      "듣": 9116,
      "들": 9117,
      "듬": 9118,
      "듭": 9119,
      "듯": 9120,
      "등": 9121,
      "디": 9122,
      "딕": 9123,
      "딘": 9124,
      "딜": 9125,
      "딥": 9126,
      "딧": 9127,
      "딩": 9128,
      "딪": 9129,
      "따": 9130,
      "딱": 9131,
      "딴": 9132,
      "딸": 9133,
      "땃": 9134,
      "땄": 9135,
      "땅": 9136,
      "때": 9137,
      "떠": 9138,
      "떡": 9139,
      "떤": 9140,
      "떨": 9141,
      "떻": 9142,
      "떼": 9143,
      "또": 9144,
      "똑": 9145,
      "뚜": 9146,
      "뚝": 9147,
      "뚫": 9148,
      "뚱": 9149,
      "뛰": 9150,
      "뜨": 9151,
      "뜬": 9152,
      "뜻": 9153,
      "띄": 9154,
      "띠": 9155,
      "띤": 9156,
      "라": 9157,
      "락": 9158,
      "란": 9159,
      "랄": 9160,
      "람": 9161,
      "랍": 9162,
      "랐": 9163,
      "랑": 9164,
      "래": 9165,
      "랙": 9166,
      "랜": 9167,
      "램": 9168,
      "랩": 9169,
      "랫": 9170,
      "랬": 9171,
      "랭": 9172,
      "랴": 9173,
      "략": 9174,
      "량": 9175,
      "러": 9176,
      "럭": 9177,
      "런": 9178,
      "럴": 9179,
      "럼": 9180,
      "럽": 9181,
      "럿": 9182,
      "렀": 9183,
      "렁": 9184,
      "렇": 9185,
      "레": 9186,
      "렉": 9187,
      "렌": 9188,
      "렐": 9189,
      "렘": 9190,
      "렛": 9191,
      "려": 9192,
      "력": 9193,
      "련": 9194,
      "렬": 9195,
      "렴": 9196,
      "렵": 9197,
      "렷": 9198,
      "렸": 9199,
      "령": 9200,
      "례": 9201,
      "로": 9202,
      "록": 9203,
      "론": 9204,
      "롤": 9205,
      "롬": 9206,
      "롭": 9207,
      "롯": 9208,
      "롱": 9209,
      "뢰": 9210,
      "료": 9211,
      "룡": 9212,
      "루": 9213,
      "룩": 9214,
      "룬": 9215,
      "룰": 9216,
      "룸": 9217,
      "룹": 9218,
      "룻": 9219,
      "룽": 9220,
      "뤄": 9221,
      "뤘": 9222,
      "뤼": 9223,
      "류": 9224,
      "륙": 9225,
      "륜": 9226,
      "률": 9227,
      "륨": 9228,
      "륭": 9229,
      "르": 9230,
      "륵": 9231,
      "른": 9232,
      "를": 9233,
      "름": 9234,
      "릇": 9235,
      "릉": 9236,
      "릎": 9237,
      "리": 9238,
      "릭": 9239,
      "린": 9240,
      "릴": 9241,
      "림": 9242,
      "립": 9243,
      "릿": 9244,
      "링": 9245,
      "마": 9246,
      "막": 9247,
      "만": 9248,
      "많": 9249,
      "맏": 9250,
      "말": 9251,
      "맑": 9252,
      "맘": 9253,
      "맛": 9254,
      "망": 9255,
      "맞": 9256,
      "맡": 9257,
      "매": 9258,
      "맥": 9259,
      "맨": 9260,
      "맵": 9261,
      "맷": 9262,
      "맹": 9263,
      "맺": 9264,
      "머": 9265,
      "먹": 9266,
      "먼": 9267,
      "멀": 9268,
      "멈": 9269,
      "멋": 9270,
      "멍": 9271,
      "메": 9272,
      "멕": 9273,
      "멘": 9274,
      "멜": 9275,
      "멤": 9276,
      "멧": 9277,
      "며": 9278,
      "면": 9279,
      "멸": 9280,
      "명": 9281,
      "몇": 9282,
      "모": 9283,
      "목": 9284,
      "몫": 9285,
      "몬": 9286,
      "몰": 9287,
      "몸": 9288,
      "몹": 9289,
      "못": 9290,
      "몽": 9291,
      "뫼": 9292,
      "묘": 9293,
      "무": 9294,
      "묵": 9295,
      "묶": 9296,
      "문": 9297,
      "묻": 9298,
      "물": 9299,
      "뭄": 9300,
      "뭇": 9301,
      "뭉": 9302,
      "뭐": 9303,
      "뭔": 9304,
      "뮌": 9305,
      "뮤": 9306,
      "뮬": 9307,
      "므": 9308,
      "미": 9309,
      "믹": 9310,
      "민": 9311,
      "믿": 9312,
      "밀": 9313,
      "밋": 9314,
      "밍": 9315,
      "및": 9316,
      "밑": 9317,
      "바": 9318,
      "박": 9319,
      "밖": 9320,
      "반": 9321,
      "받": 9322,
      "발": 9323,
      "밝": 9324,
      "밟": 9325,
      "밤": 9326,
      "밥": 9327,
      "방": 9328,
      "밭": 9329,
      "배": 9330,
      "백": 9331,
      "밴": 9332,
      "밸": 9333,
      "뱀": 9334,
      "뱅": 9335,
      "버": 9336,
      "벅": 9337,
      "번": 9338,
      "벌": 9339,
      "범": 9340,
      "법": 9341,
      "벗": 9342,
      "벚": 9343,
      "베": 9344,
      "벡": 9345,
      "벤": 9346,
      "벨": 9347,
      "벳": 9348,
      "벵": 9349,
      "벼": 9350,
      "벽": 9351,
      "변": 9352,
      "별": 9353,
      "볍": 9354,
      "병": 9355,
      "보": 9356,
      "복": 9357,
      "본": 9358,
      "볼": 9359,
      "봄": 9360,
      "봇": 9361,
      "봉": 9362,
      "봐": 9363,
      "봤": 9364,
      "부": 9365,
      "북": 9366,
      "분": 9367,
      "불": 9368,
      "붉": 9369,
      "붐": 9370,
      "붓": 9371,
      "붕": 9372,
      "붙": 9373,
      "뷔": 9374,
      "뷰": 9375,
      "브": 9376,
      "븐": 9377,
      "블": 9378,
      "비": 9379,
      "빅": 9380,
      "빈": 9381,
      "빌": 9382,
      "빔": 9383,
      "빗": 9384,
      "빙": 9385,
      "빚": 9386,
      "빛": 9387,
      "빠": 9388,
      "빨": 9389,
      "빵": 9390,
      "빼": 9391,
      "빽": 9392,
      "뻐": 9393,
      "뻔": 9394,
      "뻗": 9395,
      "뼈": 9396,
      "뽑": 9397,
      "뾰": 9398,
      "뿌": 9399,
      "뿐": 9400,
      "뿔": 9401,
      "쁘": 9402,
      "쁜": 9403,
      "쁨": 9404,
      "사": 9405,
      "삭": 9406,
      "산": 9407,
      "살": 9408,
      "삶": 9409,
      "삼": 9410,
      "삽": 9411,
      "삿": 9412,
      "샀": 9413,
      "상": 9414,
      "새": 9415,
      "색": 9416,
      "샌": 9417,
      "샐": 9418,
      "샘": 9419,
      "생": 9420,
      "샤": 9421,
      "샬": 9422,
      "샹": 9423,
      "섀": 9424,
      "서": 9425,
      "석": 9426,
      "섞": 9427,
      "선": 9428,
      "설": 9429,
      "섬": 9430,
      "섭": 9431,
      "섯": 9432,
      "섰": 9433,
      "성": 9434,
      "세": 9435,
      "섹": 9436,
      "센": 9437,
      "셀": 9438,
      "셈": 9439,
      "셉": 9440,
      "셋": 9441,
      "셔": 9442,
      "션": 9443,
      "셜": 9444,
      "셨": 9445,
      "셰": 9446,
      "셸": 9447,
      "소": 9448,
      "속": 9449,
      "손": 9450,
      "솔": 9451,
      "솜": 9452,
      "솟": 9453,
      "송": 9454,
      "쇄": 9455,
      "쇠": 9456,
      "쇼": 9457,
      "숀": 9458,
      "숍": 9459,
      "수": 9460,
      "숙": 9461,
      "순": 9462,
      "술": 9463,
      "숨": 9464,
      "숫": 9465,
      "숭": 9466,
      "숲": 9467,
      "쉐": 9468,
      "쉬": 9469,
      "쉴": 9470,
      "쉽": 9471,
      "슈": 9472,
      "슌": 9473,
      "슐": 9474,
      "슘": 9475,
      "슛": 9476,
      "스": 9477,
      "슨": 9478,
      "슬": 9479,
      "슭": 9480,
      "슴": 9481,
      "습": 9482,
      "슷": 9483,
      "승": 9484,
      "시": 9485,
      "식": 9486,
      "신": 9487,
      "싣": 9488,
      "실": 9489,
      "싫": 9490,
      "심": 9491,
      "십": 9492,
      "싯": 9493,
      "싱": 9494,
      "싶": 9495,
      "싸": 9496,
      "싹": 9497,
      "싼": 9498,
      "쌀": 9499,
      "쌍": 9500,
      "쌓": 9501,
      "써": 9502,
      "썩": 9503,
      "썬": 9504,
      "썰": 9505,
      "썼": 9506,
      "쏘": 9507,
      "쏜": 9508,
      "쏟": 9509,
      "쑤": 9510,
      "쓰": 9511,
      "쓴": 9512,
      "쓸": 9513,
      "씀": 9514,
      "씌": 9515,
      "씨": 9516,
      "씩": 9517,
      "씬": 9518,
      "아": 9519,
      "악": 9520,
      "안": 9521,
      "앉": 9522,
      "않": 9523,
      "알": 9524,
      "앓": 9525,
      "암": 9526,
      "압": 9527,
      "앗": 9528,
      "았": 9529,
      "앙": 9530,
      "앞": 9531,
      "애": 9532,
      "액": 9533,
      "앤": 9534,
      "앨": 9535,
      "앱": 9536,
      "앵": 9537,
      "야": 9538,
      "약": 9539,
      "얀": 9540,
      "얄": 9541,
      "얇": 9542,
      "양": 9543,
      "얕": 9544,
      "얘": 9545,
      "어": 9546,
      "억": 9547,
      "언": 9548,
      "얹": 9549,
      "얻": 9550,
      "얼": 9551,
      "얽": 9552,
      "엄": 9553,
      "업": 9554,
      "없": 9555,
      "엇": 9556,
      "었": 9557,
      "엉": 9558,
      "에": 9559,
      "엑": 9560,
      "엔": 9561,
      "엘": 9562,
      "엠": 9563,
      "엣": 9564,
      "여": 9565,
      "역": 9566,
      "엮": 9567,
      "연": 9568,
      "열": 9569,
      "염": 9570,
      "엽": 9571,
      "엿": 9572,
      "였": 9573,
      "영": 9574,
      "옆": 9575,
      "예": 9576,
      "옌": 9577,
      "옐": 9578,
      "옛": 9579,
      "오": 9580,
      "옥": 9581,
      "온": 9582,
      "올": 9583,
      "옮": 9584,
      "옳": 9585,
      "옴": 9586,
      "옵": 9587,
      "옷": 9588,
      "옹": 9589,
      "와": 9590,
      "완": 9591,
      "왈": 9592,
      "왓": 9593,
      "왔": 9594,
      "왕": 9595,
      "왜": 9596,
      "외": 9597,
      "왼": 9598,
      "요": 9599,
      "욕": 9600,
      "욘": 9601,
      "욤": 9602,
      "용": 9603,
      "우": 9604,
      "욱": 9605,
      "운": 9606,
      "울": 9607,
      "움": 9608,
      "웃": 9609,
      "웅": 9610,
      "워": 9611,
      "원": 9612,
      "월": 9613,
      "웠": 9614,
      "웨": 9615,
      "웬": 9616,
      "웰": 9617,
      "웹": 9618,
      "위": 9619,
      "윅": 9620,
      "윈": 9621,
      "윌": 9622,
      "윗": 9623,
      "윙": 9624,
      "유": 9625,
      "육": 9626,
      "윤": 9627,
      "율": 9628,
      "융": 9629,
      "으": 9630,
      "윽": 9631,
      "은": 9632,
      "을": 9633,
      "음": 9634,
      "읍": 9635,
      "응": 9636,
      "의": 9637,
      "이": 9638,
      "익": 9639,
      "인": 9640,
      "일": 9641,
      "읽": 9642,
      "잃": 9643,
      "임": 9644,
      "입": 9645,
      "잇": 9646,
      "있": 9647,
      "잉": 9648,
      "잊": 9649,
      "잎": 9650,
      "자": 9651,
      "작": 9652,
      "잔": 9653,
      "잘": 9654,
      "잠": 9655,
      "잡": 9656,
      "장": 9657,
      "잦": 9658,
      "재": 9659,
      "잭": 9660,
      "쟁": 9661,
      "쟈": 9662,
      "저": 9663,
      "적": 9664,
      "전": 9665,
      "절": 9666,
      "젊": 9667,
      "점": 9668,
      "접": 9669,
      "정": 9670,
      "젖": 9671,
      "제": 9672,
      "젝": 9673,
      "젠": 9674,
      "젤": 9675,
      "져": 9676,
      "졌": 9677,
      "조": 9678,
      "족": 9679,
      "존": 9680,
      "졸": 9681,
      "좀": 9682,
      "좁": 9683,
      "종": 9684,
      "좋": 9685,
      "좌": 9686,
      "죄": 9687,
      "죠": 9688,
      "주": 9689,
      "죽": 9690,
      "준": 9691,
      "줄": 9692,
      "줌": 9693,
      "중": 9694,
      "줘": 9695,
      "줬": 9696,
      "쥐": 9697,
      "쥬": 9698,
      "쥰": 9699,
      "즈": 9700,
      "즉": 9701,
      "즌": 9702,
      "즐": 9703,
      "즘": 9704,
      "증": 9705,
      "지": 9706,
      "직": 9707,
      "진": 9708,
      "질": 9709,
      "짐": 9710,
      "집": 9711,
      "짓": 9712,
      "징": 9713,
      "짙": 9714,
      "짜": 9715,
      "짝": 9716,
      "짧": 9717,
      "짱": 9718,
      "째": 9719,
      "쩌": 9720,
      "쩔": 9721,
      "쪽": 9722,
      "쫓": 9723,
      "쭉": 9724,
      "쯔": 9725,
      "쯤": 9726,
      "찌": 9727,
      "찍": 9728,
      "찔": 9729,
      "차": 9730,
      "착": 9731,
      "찬": 9732,
      "찮": 9733,
      "찰": 9734,
      "참": 9735,
      "창": 9736,
      "찾": 9737,
      "채": 9738,
      "책": 9739,
      "챈": 9740,
      "챌": 9741,
      "챔": 9742,
      "챙": 9743,
      "처": 9744,
      "척": 9745,
      "천": 9746,
      "철": 9747,
      "첨": 9748,
      "첩": 9749,
      "첫": 9750,
      "청": 9751,
      "체": 9752,
      "첸": 9753,
      "첼": 9754,
      "쳐": 9755,
      "쳤": 9756,
      "초": 9757,
      "촉": 9758,
      "촌": 9759,
      "촛": 9760,
      "총": 9761,
      "촨": 9762,
      "촬": 9763,
      "최": 9764,
      "추": 9765,
      "축": 9766,
      "춘": 9767,
      "출": 9768,
      "춤": 9769,
      "충": 9770,
      "춰": 9771,
      "췌": 9772,
      "취": 9773,
      "츄": 9774,
      "츠": 9775,
      "측": 9776,
      "츰": 9777,
      "층": 9778,
      "치": 9779,
      "칙": 9780,
      "친": 9781,
      "칠": 9782,
      "침": 9783,
      "칩": 9784,
      "칭": 9785,
      "카": 9786,
      "칸": 9787,
      "칼": 9788,
      "캄": 9789,
      "캅": 9790,
      "캉": 9791,
      "캐": 9792,
      "캔": 9793,
      "캘": 9794,
      "캠": 9795,
      "캡": 9796,
      "캣": 9797,
      "커": 9798,
      "컨": 9799,
      "컫": 9800,
      "컬": 9801,
      "컴": 9802,
      "컵": 9803,
      "컷": 9804,
      "컸": 9805,
      "케": 9806,
      "켄": 9807,
      "켈": 9808,
      "켓": 9809,
      "켜": 9810,
      "켰": 9811,
      "코": 9812,
      "콕": 9813,
      "콘": 9814,
      "콜": 9815,
      "콤": 9816,
      "콥": 9817,
      "콧": 9818,
      "콩": 9819,
      "콰": 9820,
      "쾌": 9821,
      "쾰": 9822,
      "쿄": 9823,
      "쿠": 9824,
      "쿡": 9825,
      "쿤": 9826,
      "쿨": 9827,
      "쿼": 9828,
      "퀘": 9829,
      "퀴": 9830,
      "퀸": 9831,
      "큐": 9832,
      "큘": 9833,
      "크": 9834,
      "큰": 9835,
      "클": 9836,
      "큼": 9837,
      "키": 9838,
      "킥": 9839,
      "킨": 9840,
      "킬": 9841,
      "킴": 9842,
      "킷": 9843,
      "킹": 9844,
      "타": 9845,
      "탁": 9846,
      "탄": 9847,
      "탈": 9848,
      "탐": 9849,
      "탑": 9850,
      "탓": 9851,
      "탔": 9852,
      "탕": 9853,
      "태": 9854,
      "택": 9855,
      "탠": 9856,
      "탤": 9857,
      "탬": 9858,
      "탭": 9859,
      "탱": 9860,
      "터": 9861,
      "턱": 9862,
      "턴": 9863,
      "털": 9864,
      "텀": 9865,
      "테": 9866,
      "텍": 9867,
      "텐": 9868,
      "텔": 9869,
      "템": 9870,
      "텝": 9871,
      "톈": 9872,
      "토": 9873,
      "톡": 9874,
      "톤": 9875,
      "톨": 9876,
      "톰": 9877,
      "톱": 9878,
      "통": 9879,
      "퇴": 9880,
      "투": 9881,
      "툰": 9882,
      "툴": 9883,
      "툼": 9884,
      "퉁": 9885,
      "튀": 9886,
      "튜": 9887,
      "튠": 9888,
      "튬": 9889,
      "트": 9890,
      "특": 9891,
      "튼": 9892,
      "틀": 9893,
      "틈": 9894,
      "티": 9895,
      "틱": 9896,
      "틴": 9897,
      "틸": 9898,
      "팀": 9899,
      "팅": 9900,
      "파": 9901,
      "팍": 9902,
      "판": 9903,
      "팔": 9904,
      "팜": 9905,
      "팝": 9906,
      "팟": 9907,
      "팡": 9908,
      "패": 9909,
      "팩": 9910,
      "팬": 9911,
      "팽": 9912,
      "퍼": 9913,
      "펀": 9914,
      "펄": 9915,
      "펌": 9916,
      "펑": 9917,
      "페": 9918,
      "펙": 9919,
      "펜": 9920,
      "펠": 9921,
      "펫": 9922,
      "펴": 9923,
      "편": 9924,
      "펼": 9925,
      "평": 9926,
      "폐": 9927,
      "포": 9928,
      "폭": 9929,
      "폰": 9930,
      "폴": 9931,
      "폼": 9932,
      "퐁": 9933,
      "표": 9934,
      "푸": 9935,
      "푼": 9936,
      "풀": 9937,
      "품": 9938,
      "풋": 9939,
      "풍": 9940,
      "퓨": 9941,
      "프": 9942,
      "픈": 9943,
      "플": 9944,
      "픔": 9945,
      "피": 9946,
      "픽": 9947,
      "핀": 9948,
      "필": 9949,
      "핍": 9950,
      "핑": 9951,
      "하": 9952,
      "학": 9953,
      "한": 9954,
      "할": 9955,
      "함": 9956,
      "합": 9957,
      "핫": 9958,
      "항": 9959,
      "해": 9960,
      "핵": 9961,
      "핸": 9962,
      "햄": 9963,
      "햇": 9964,
      "했": 9965,
      "행": 9966,
      "향": 9967,
      "허": 9968,
      "헌": 9969,
      "헐": 9970,
      "험": 9971,
      "헝": 9972,
      "헤": 9973,
      "헨": 9974,
      "헬": 9975,
      "혀": 9976,
      "혁": 9977,
      "현": 9978,
      "혈": 9979,
      "혐": 9980,
      "협": 9981,
      "혔": 9982,
      "형": 9983,
      "혜": 9984,
      "호": 9985,
      "혹": 9986,
      "혼": 9987,
      "홀": 9988,
      "홈": 9989,
      "홉": 9990,
      "홋": 9991,
      "홍": 9992,
      "화": 9993,
      "확": 9994,
      "환": 9995,
      "활": 9996,
      "황": 9997,
      "회": 9998,
      "획": 9999,
      "횟": 10000,
      "횡": 10001,
      "효": 10002,
      "후": 10003,
      "훈": 10004,
      "훌": 10005,
      "훔": 10006,
      "훗": 10007,
      "훨": 10008,
      "훼": 10009,
      "휘": 10010,
      "휠": 10011,
      "휩": 10012,
      "휴": 10013,
      "흉": 10014,
      "흐": 10015,
      "흑": 10016,
      "흔": 10017,
      "흘": 10018,
      "흙": 10019,
      "흡": 10020,
      "흥": 10021,
      "흩": 10022,
      "희": 10023,
      "흰": 10024,
      "히": 10025,
      "힌": 10026,
      "힐": 10027,
      "힘": 10028,
      "힙": 10029,
      "﨑": 10030,
      "ﮐ": 10031,
      "ﮟ": 10032,
      "ﮨ": 10033,
      "ﮯ": 10034,
      "ﯽ": 10035,
      "ﯿ": 10036,
      "﴾": 10037,
      "﴿": 10038,
      "ﷲ": 10039,
      "ﷺ": 10040,
      "︰": 10041,
      "﹐": 10042,
      "﹑": 10043,
      "﹔": 10044,
      "﹕": 10045,
      "﹝": 10046,
      "﹞": 10047,
      "﹣": 10048,
      "ﺍ": 10049,
      "ﺎ": 10050,
      "ﺗ": 10051,
      "ﻣ": 10052,
      "ﻭ": 10053,
      "ﻮ": 10054,
      "！": 10055,
      "＂": 10056,
      "＃": 10057,
      "％": 10058,
      "＆": 10059,
      "（": 10060,
      "）": 10061,
      "＊": 10062,
      "＋": 10063,
      "，": 10064,
      "－": 10065,
      "．": 10066,
      "／": 10067,
      "０": 10068,
      "１": 10069,
      "２": 10070,
      "３": 10071,
      "４": 10072,
      "５": 10073,
      "６": 10074,
      "７": 10075,
      "８": 10076,
      "９": 10077,
      "：": 10078,
      "；": 10079,
      "＜": 10080,
      "＝": 10081,
      "＞": 10082,
      "？": 10083,
      "＠": 10084,
      "Ａ": 10085,
      "Ｂ": 10086,
      "Ｃ": 10087,
      "Ｍ": 10088,
      "Ｓ": 10089,
      "Ｘ": 10090,
      "［": 10091,
      "＼": 10092,
      "］": 10093,
      "＿": 10094,
      "｜": 10095,
      "～": 10096,
      "｡": 10097,
      "｢": 10098,
      "｣": 10099,
      "､": 10100,
      "･": 10101,
      "𩽾": 10102,
      "𩾌": 10103,
      "de": 10104,
      "the": 10105,
      "in": 10106,
      "##s": 10107,
      "of": 10108,
      "la": 10109,
      "en": 10110,
      "and": 10111,
      "##e": 10112,
      "##a": 10113,
      "to": 10114,
      "##n": 10115,
      "##i": 10116,
      "The": 10117,
      "der": 10118,
      "un": 10119,
      "di": 10120,
      "que": 10121,
      "на": 10122,
      "##t": 10123,
      "is": 10124,
      "el": 10125,
      "se": 10126,
      "del": 10127,
      "die": 10128,
      "##r": 10129,
      "und": 10130,
      "et": 10131,
      "na": 10132,
      "##o": 10133,
      "was": 10134,
      "on": 10135,
      "##en": 10136,
      "är": 10137,
      "##u": 10138,
      "des": 10139,
      "den": 10140,
      "le": 10141,
      "for": 10142,
      "da": 10143,
      "je": 10144,
      "van": 10145,
      "as": 10146,
      "##m": 10147,
      "sa": 10148,
      "do": 10149,
      "10": 10150,
      "an": 10151,
      "les": 10152,
      "una": 10153,
      "il": 10154,
      "by": 10155,
      "og": 10156,
      "##y": 10157,
      "2011": 10158,
      "La": 10159,
      "at": 10160,
      "##l": 10161,
      "##d": 10162,
      "er": 10163,
      "al": 10164,
      "##er": 10165,
      "von": 10166,
      "In": 10167,
      "du": 10168,
      "with": 10169,
      "av": 10170,
      "##es": 10171,
      "med": 10172,
      "con": 10173,
      "##k": 10174,
      "2010": 10175,
      "est": 10176,
      "och": 10177,
      "per": 10178,
      "##а": 10179,
      "2000": 10180,
      "som": 10181,
      "los": 10182,
      "por": 10183,
      "nga": 10184,
      "2012": 10185,
      "12": 10186,
      "het": 10187,
      "from": 10188,
      "that": 10189,
      "De": 10190,
      "##и": 10191,
      "no": 10192,
      "11": 10193,
      "2014": 10194,
      "2009": 10195,
      "es": 10196,
      "20": 10197,
      "su": 10198,
      "ISBN": 10199,
      "een": 10200,
      "ja": 10201,
      "2007": 10202,
      "2008": 10203,
      "km": 10204,
      "##е": 10205,
      "##an": 10206,
      "2013": 10207,
      "15": 10208,
      "om": 10209,
      "في": 10210,
      "im": 10211,
      "com": 10212,
      "##ta": 10213,
      "2006": 10214,
      "dan": 10215,
      "##te": 10216,
      "på": 10217,
      "18": 10218,
      "##na": 10219,
      "para": 10220,
      "mit": 10221,
      "2015": 10222,
      "als": 10223,
      "El": 10224,
      "como": 10225,
      "his": 10226,
      "##у": 10227,
      "ha": 10228,
      "##da": 10229,
      "##ing": 10230,
      "une": 10231,
      "...": 10232,
      "24": 10233,
      "за": 10234,
      "Den": 10235,
      "Die": 10236,
      "##h": 10237,
      "##ne": 10238,
      "در": 10239,
      "##g": 10240,
      "##м": 10241,
      "das": 10242,
      "En": 10243,
      "30": 10244,
      "##in": 10245,
      "##re": 10246,
      "14": 10247,
      "par": 10248,
      "13": 10249,
      "16": 10250,
      "##us": 10251,
      "2005": 10252,
      "##de": 10253,
      "је": 10254,
      "2016": 10255,
      "és": 10256,
      "au": 10257,
      "25": 10258,
      "000": 10259,
      "dans": 10260,
      "he": 10261,
      "che": 10262,
      "##on": 10263,
      "2004": 10264,
      "yang": 10265,
      "em": 10266,
      "##н": 10267,
      "dem": 10268,
      "##ch": 10269,
      "19": 10270,
      "it": 10271,
      "2001": 10272,
      "17": 10273,
      "°C": 10274,
      "til": 10275,
      "2002": 10276,
      "се": 10277,
      "##ی": 10278,
      "han": 10279,
      "##ia": 10280,
      "Le": 10281,
      "Il": 10282,
      "wurde": 10283,
      "##le": 10284,
      "las": 10285,
      "della": 10286,
      "New": 10287,
      "##ra": 10288,
      "من": 10289,
      "ein": 10290,
      "##is": 10291,
      "##ы": 10292,
      "um": 10293,
      "si": 10294,
      "2003": 10295,
      "21": 10296,
      "по": 10297,
      "ist": 10298,
      "var": 10299,
      "Species": 10300,
      "are": 10301,
      "2017": 10302,
      "op": 10303,
      "zu": 10304,
      "##z": 10305,
      "22": 10306,
      "für": 10307,
      "##et": 10308,
      "were": 10309,
      "##os": 10310,
      "od": 10311,
      "son": 10312,
      "An": 10313,
      "26": 10314,
      "World": 10315,
      "##о": 10316,
      "##do": 10317,
      "של": 10318,
      "which": 10319,
      "##ja": 10320,
      "va": 10321,
      "pour": 10322,
      "ve": 10323,
      "1999": 10324,
      "##ti": 10325,
      "sur": 10326,
      "به": 10327,
      "23": 10328,
      "auf": 10329,
      "##la": 10330,
      "là": 10331,
      "от": 10332,
      "##é": 10333,
      "года": 10334,
      "II": 10335,
      "##ed": 10336,
      "Life": 10337,
      "war": 10338,
      "za": 10339,
      "##to": 10340,
      "##se": 10341,
      "##ni": 10342,
      "##no": 10343,
      "до": 10344,
      "or": 10345,
      "nel": 10346,
      "be": 10347,
      "28": 10348,
      "det": 10349,
      "##c": 10350,
      "##т": 10351,
      "##і": 10352,
      "##х": 10353,
      "##ar": 10354,
      "qui": 10355,
      "του": 10356,
      "He": 10357,
      "και": 10358,
      "eine": 10359,
      "az": 10360,
      "te": 10361,
      "##va": 10362,
      "1998": 10363,
      "##ом": 10364,
      "27": 10365,
      "mm": 10366,
      "##та": 10367,
      "##nt": 10368,
      "##ma": 10369,
      "finns": 10370,
      "##ka": 10371,
      "sich": 10372,
      "Catalogue": 10373,
      "had": 10374,
      "не": 10375,
      "##ng": 10376,
      "It": 10377,
      "în": 10378,
      "also": 10379,
      "so": 10380,
      "##je": 10381,
      "##ة": 10382,
      "از": 10383,
      "##й": 10384,
      "##я": 10385,
      "29": 10386,
      "из": 10387,
      "##ه": 10388,
      "1996": 10389,
      "##li": 10390,
      "1997": 10391,
      "am": 10392,
      "has": 10393,
      "km²": 10394,
      "roku": 10395,
      "și": 10396,
      "dari": 10397,
      "dos": 10398,
      "ur": 10399,
      "##ie": 10400,
      "##ri": 10401,
      "entre": 10402,
      "##as": 10403,
      "University": 10404,
      "да": 10405,
      "lo": 10406,
      "100": 10407,
      "eta": 10408,
      "##на": 10409,
      "##p": 10410,
      "era": 10411,
      "के": 10412,
      "31": 10413,
      "ni": 10414,
      "##al": 10415,
      "##ה": 10416,
      "một": 10417,
      "##j": 10418,
      "##ce": 10419,
      "1990": 10420,
      "John": 10421,
      "first": 10422,
      "voor": 10423,
      "się": 10424,
      "##ca": 10425,
      "##ment": 10426,
      "os": 10427,
      "met": 10428,
      "##ا": 10429,
      "од": 10430,
      "ou": 10431,
      "và": 10432,
      "##ов": 10433,
      "2018": 10434,
      "all": 10435,
      "1995": 10436,
      "uma": 10437,
      "##ים": 10438,
      "во": 10439,
      "##ko": 10440,
      "aus": 10441,
      "1991": 10442,
      "##ó": 10443,
      "1994": 10444,
      "Der": 10445,
      "non": 10446,
      "của": 10447,
      "foi": 10448,
      "##si": 10449,
      "1992": 10450,
      "##em": 10451,
      "af": 10452,
      "har": 10453,
      "##ly": 10454,
      "their": 10455,
      "ar": 10456,
      "##b": 10457,
      "film": 10458,
      "##의": 10459,
      "avec": 10460,
      "##ي": 10461,
      "50": 10462,
      "1993": 10463,
      "one": 10464,
      "##um": 10465,
      "##sa": 10466,
      "bis": 10467,
      "Les": 10468,
      "San": 10469,
      "της": 10470,
      "##ă": 10471,
      "not": 10472,
      "but": 10473,
      "its": 10474,
      "та": 10475,
      "được": 10476,
      "##v": 10477,
      "ir": 10478,
      "who": 10479,
      "ny": 10480,
      "##ו": 10481,
      "York": 10482,
      "##ga": 10483,
      "##ς": 10484,
      "her": 10485,
      "##it": 10486,
      "το": 10487,
      "ang": 10488,
      "månaden": 10489,
      "Mexico": 10490,
      "over": 10491,
      "bei": 10492,
      "ser": 10493,
      "www": 10494,
      "году": 10495,
      "nach": 10496,
      "した": 10497,
      "که": 10498,
      "dei": 10499,
      "##mi": 10500,
      "##ת": 10501,
      "##ت": 10502,
      "trakten": 10503,
      "trong": 10504,
      "nederbörd": 10505,
      "##ki": 10506,
      "את": 10507,
      "##ми": 10508,
      "ligger": 10509,
      "##к": 10510,
      "të": 10511,
      "alla": 10512,
      "##с": 10513,
      "po": 10514,
      "auch": 10515,
      "History": 10516,
      "##л": 10517,
      "yn": 10518,
      "##р": 10519,
      "для": 10520,
      "##ка": 10521,
      "door": 10522,
      "UK": 10523,
      "1989": 10524,
      "##ge": 10525,
      "##at": 10526,
      "dat": 10527,
      "runt": 10528,
      "have": 10529,
      "##에": 10530,
      "this": 10531,
      "में": 10532,
      "40": 10533,
      "##י": 10534,
      "##ية": 10535,
      "American": 10536,
      "##ba": 10537,
      "1980": 10538,
      "ed": 10539,
      "uit": 10540,
      "##в": 10541,
      "species": 10542,
      "más": 10543,
      "från": 10544,
      "##í": 10545,
      "##ur": 10546,
      "este": 10547,
      "1988": 10548,
      "ya": 10549,
      "##ke": 10550,
      "two": 10551,
      "parte": 10552,
      "fue": 10553,
      "ne": 10554,
      "Checklist": 10555,
      "http": 10556,
      "Ang": 10557,
      "năm": 10558,
      "amb": 10559,
      "على": 10560,
      "bir": 10561,
      "##st": 10562,
      "plus": 10563,
      "##ات": 10564,
      "ITIS": 10565,
      "است": 10566,
      "##ro": 10567,
      "Press": 10568,
      "है": 10569,
      "##el": 10570,
      "under": 10571,
      "על": 10572,
      "する": 10573,
      "zijn": 10574,
      "##f": 10575,
      "On": 10576,
      "##ות": 10577,
      "1986": 10578,
      "werd": 10579,
      "zum": 10580,
      "1987": 10581,
      "##ن": 10582,
      "1985": 10583,
      "978": 10584,
      "pada": 10585,
      "meter": 10586,
      "су": 10587,
      "men": 10588,
      "##man": 10589,
      "been": 10590,
      "dell": 10591,
      "ini": 10592,
      "##ю": 10593,
      "familia": 10594,
      "din": 10595,
      "September": 10596,
      "1984": 10597,
      "##ci": 10598,
      "einer": 10599,
      "Orrell": 10600,
      "có": 10601,
      "Saint": 10602,
      "sua": 10603,
      "##ul": 10604,
      "##ndo": 10605,
      "album": 10606,
      "1970": 10607,
      "qu": 10608,
      "United": 10609,
      "ao": 10610,
      "##mente": 10611,
      "##ve": 10612,
      "över": 10613,
      "mais": 10614,
      "werden": 10615,
      "Annual": 10616,
      "seu": 10617,
      "Panoramas": 10618,
      "Viewfinder": 10619,
      "genus": 10620,
      "##ą": 10621,
      "##을": 10622,
      "september": 10623,
      "Kirk": 10624,
      "##ся": 10625,
      "oli": 10626,
      "##me": 10627,
      "fra": 10628,
      "Reading": 10629,
      "Los": 10630,
      "Michael": 10631,
      "sie": 10632,
      "##den": 10633,
      "##の": 10634,
      "time": 10635,
      "##но": 10636,
      "##za": 10637,
      "##io": 10638,
      "Bourgoin": 10639,
      "NASA": 10640,
      "این": 10641,
      "1982": 10642,
      "1983": 10643,
      "##ów": 10644,
      "Bailly": 10645,
      "ngan": 10646,
      "sont": 10647,
      "##ки": 10648,
      "την": 10649,
      "Roskov": 10650,
      "Baillargeon": 10651,
      "III": 10652,
      "Paglinawan": 10653,
      "1981": 10654,
      "National": 10655,
      "##ни": 10656,
      "No": 10657,
      "##د": 10658,
      "dengan": 10659,
      "DEM": 10660,
      "##á": 10661,
      "after": 10662,
      "dalam": 10663,
      "ett": 10664,
      "1975": 10665,
      "Det": 10666,
      "##or": 10667,
      "part": 10668,
      "01": 10669,
      "1945": 10670,
      "dia": 10671,
      "Das": 10672,
      "##ر": 10673,
      "##ла": 10674,
      "1979": 10675,
      "##nya": 10676,
      "1972": 10677,
      "come": 10678,
      "##ya": 10679,
      "red": 10680,
      "##ten": 10681,
      "ingår": 10682,
      "els": 10683,
      "other": 10684,
      "Na": 10685,
      "##x": 10686,
      "në": 10687,
      "France": 10688,
      "they": 10689,
      "sobre": 10690,
      "کے": 10691,
      "##om": 10692,
      "1978": 10693,
      "William": 10694,
      "##не": 10695,
      "##те": 10696,
      "tot": 10697,
      "1968": 10698,
      "1960": 10699,
      "##م": 10700,
      "jako": 10701,
      "был": 10702,
      "##di": 10703,
      "delen": 10704,
      "1976": 10705,
      "##kan": 10706,
      "##ek": 10707,
      "into": 10708,
      "60": 10709,
      "##ak": 10710,
      "və": 10711,
      "till": 10712,
      "##ı": 10713,
      "durch": 10714,
      "##lo": 10715,
      "##ung": 10716,
      "року": 10717,
      "ble": 10718,
      "06": 10719,
      "από": 10720,
      "##ів": 10721,
      "1977": 10722,
      "1974": 10723,
      "1973": 10724,
      "May": 10725,
      "nicht": 10726,
      "aan": 10727,
      "Paris": 10728,
      "##2": 10729,
      "ka": 10730,
      "##S": 10731,
      "1971": 10732,
      "org": 10733,
      "Mer": 10734,
      "August": 10735,
      "zur": 10736,
      "mai": 10737,
      "##A": 10738,
      "##이": 10739,
      "dal": 10740,
      "up": 10741,
      "##ها": 10742,
      "ng": 10743,
      "här": 10744,
      "einem": 10745,
      "##д": 10746,
      "This": 10747,
      "را": 10748,
      "nahilalakip": 10749,
      "då": 10750,
      "new": 10751,
      "##то": 10752,
      "थ्व": 10753,
      "aux": 10754,
      "Ginkuhà": 10755,
      "##ny": 10756,
      "500": 10757,
      "##ho": 10758,
      "##1": 10759,
      "oder": 10760,
      "##ju": 10761,
      "sind": 10762,
      "landet": 10763,
      "1969": 10764,
      "##ان": 10765,
      "Jean": 10766,
      "algoritmen": 10767,
      "Användare": 10768,
      "Algoritmer": 10769,
      "Lsjbot": 10770,
      "International": 10771,
      "Paul": 10772,
      "City": 10773,
      "##lar": 10774,
      "##ji": 10775,
      "höjduppgifter": 10776,
      "200": 10777,
      "На": 10778,
      "км": 10779,
      "April": 10780,
      "με": 10781,
      "untuk": 10782,
      "##ли": 10783,
      "adalah": 10784,
      "hij": 10785,
      "uska": 10786,
      "ziren": 10787,
      "att": 10788,
      "này": 10789,
      "wird": 10790,
      "что": 10791,
      "các": 10792,
      "iz": 10793,
      "ce": 10794,
      "sin": 10795,
      "Im": 10796,
      "##go": 10797,
      "more": 10798,
      "nan": 10799,
      "1967": 10800,
      "pas": 10801,
      "havet": 10802,
      "35": 10803,
      "David": 10804,
      "ei": 10805,
      "##ts": 10806,
      "nella": 10807,
      "US": 10808,
      "hini": 10809,
      "##ción": 10810,
      "1950": 10811,
      "##co": 10812,
      "TV": 10813,
      "04": 10814,
      "##ler": 10815,
      "##à": 10816,
      "man": 10817,
      "Han": 10818,
      "November": 10819,
      "Robert": 10820,
      "Nicolson": 10821,
      "##tion": 10822,
      "##г": 10823,
      "ma": 10824,
      "1944": 10825,
      "की": 10826,
      "45": 10827,
      "1962": 10828,
      "London": 10829,
      "lui": 10830,
      "05": 10831,
      "80": 10832,
      "she": 10833,
      "dels": 10834,
      "##ir": 10835,
      "##ía": 10836,
      "delle": 10837,
      "St": 10838,
      "1965": 10839,
      "ad": 10840,
      "when": 10841,
      "32": 10842,
      "65": 10843,
      "##ų": 10844,
      "été": 10845,
      "sus": 10846,
      "för": 10847,
      "über": 10848,
      "subspecies": 10849,
      "due": 10850,
      "##ь": 10851,
      "##ва": 10852,
      "##ku": 10853,
      "cu": 10854,
      "years": 10855,
      "1964": 10856,
      "1966": 10857,
      "##C": 10858,
      "States": 10859,
      "familjen": 10860,
      "ہے": 10861,
      "fan": 10862,
      "إلى": 10863,
      "що": 10864,
      "NGC": 10865,
      "Ouvrard": 10866,
      "Het": 10867,
      "са": 10868,
      "Bisby": 10869,
      "##ze": 10870,
      "და": 10871,
      "ginhulagway": 10872,
      "later": 10873,
      "##w": 10874,
      "1961": 10875,
      "họ": 10876,
      "##ter": 10877,
      "07": 10878,
      "ki": 10879,
      "или": 10880,
      "1941": 10881,
      "As": 10882,
      "Al": 10883,
      "##3": 10884,
      "##ë": 10885,
      "County": 10886,
      "Waray": 10887,
      "1940": 10888,
      "huvudstaden": 10889,
      "nakalista": 10890,
      "##ns": 10891,
      "##은": 10892,
      "only": 10893,
      "would": 10894,
      "1939": 10895,
      "##ik": 10896,
      "einen": 10897,
      "##が": 10898,
      "più": 10899,
      "James": 10900,
      "##ers": 10901,
      "godine": 10902,
      "Framräknat": 10903,
      "1963": 10904,
      "kan": 10905,
      "から": 10906,
      "03": 10907,
      "##ry": 10908,
      "با": 10909,
      "januari": 10910,
      "me": 10911,
      "Es": 10912,
      "при": 10913,
      "##ी": 10914,
      "Er": 10915,
      "میں": 10916,
      "##sen": 10917,
      "##های": 10918,
      "90": 10919,
      "##des": 10920,
      "##ha": 10921,
      "##ção": 10922,
      "70": 10923,
      "year": 10924,
      "Charles": 10925,
      "släktet": 10926,
      "##ban": 10927,
      "##ен": 10928,
      "##0": 10929,
      "blev": 10930,
      "pa": 10931,
      "##ם": 10932,
      "его": 10933,
      "varmaste": 10934,
      "Årsmedeltemperaturen": 10935,
      "kallaste": 10936,
      "beskrevs": 10937,
      "medeltemperaturen": 10938,
      "during": 10939,
      "where": 10940,
      "ze": 10941,
      "eller": 10942,
      "##rs": 10943,
      "can": 10944,
      "loài": 10945,
      "underarter": 10946,
      "1958": 10947,
      "between": 10948,
      "как": 10949,
      "out": 10950,
      "Bronnen": 10951,
      "された": 10952,
      "wie": 10953,
      "##년": 10954,
      "George": 10955,
      "со": 10956,
      "him": 10957,
      "Inga": 10958,
      "sono": 10959,
      "##ти": 10960,
      "##ل": 10961,
      "millimeter": 10962,
      "##ę": 10963,
      "noten": 10964,
      "##ben": 10965,
      "juli": 10966,
      "referenties": 10967,
      "alle": 10968,
      "##ren": 10969,
      "##ных": 10970,
      "##ը": 10971,
      "##sta": 10972,
      "jest": 10973,
      "ses": 10974,
      "1956": 10975,
      "##rt": 10976,
      "और": 10977,
      "about": 10978,
      "Peter": 10979,
      "1959": 10980,
      "listade": 10981,
      "నుండి": 10982,
      "02": 10983,
      "School": 10984,
      "vun": 10985,
      "comme": 10986,
      "##да": 10987,
      "1943": 10988,
      "tahun": 10989,
      "##го": 10990,
      "##tu": 10991,
      "most": 10992,
      "##ма": 10993,
      "genomsnitt": 10994,
      "wurden": 10995,
      "torraste": 10996,
      "årsnederbörd": 10997,
      "Genomsnittlig": 10998,
      "regnigaste": 10999,
      "33": 11000,
      "године": 11001,
      "##ן": 11002,
      "three": 11003,
      "1948": 11004,
      "fu": 11005,
      "##ů": 11006,
      "invånare": 11007,
      "##am": 11008,
      "kvadratkilometer": 11009,
      "##ou": 11010,
      "##4": 11011,
      "Earth": 11012,
      "##ä": 11013,
      "anche": 11014,
      "ben": 11015,
      "##от": 11016,
      "1942": 11017,
      "##는": 11018,
      "made": 11019,
      "англ": 11020,
      "##ria": 11021,
      "కి": 11022,
      "ye": 11023,
      "##ov": 11024,
      "00": 11025,
      "1957": 11026,
      "người": 11027,
      "1930": 11028,
      "1920": 11029,
      "##il": 11030,
      "used": 11031,
      "1954": 11032,
      "##mo": 11033,
      "dhe": 11034,
      "09": 11035,
      "vom": 11036,
      "##wa": 11037,
      "Un": 11038,
      "##jo": 11039,
      "sebagai": 11040,
      "forma": 11041,
      "##és": 11042,
      "##ica": 11043,
      "##be": 11044,
      "Se": 11045,
      "##ion": 11046,
      "durante": 11047,
      "przez": 11048,
      "such": 11049,
      "##ного": 11050,
      "deux": 11051,
      "08": 11052,
      "known": 11053,
      "ved": 11054,
      "36": 11055,
      "South": 11056,
      "ta": 11057,
      "nie": 11058,
      "then": 11059,
      "он": 11060,
      "USA": 11061,
      "##ken": 11062,
      "1946": 11063,
      "dass": 11064,
      "You": 11065,
      "Maria": 11066,
      "##ina": 11067,
      "να": 11068,
      "34": 11069,
      "final": 11070,
      "1955": 11071,
      "से": 11072,
      "である": 11073,
      "League": 11074,
      "##ной": 11075,
      "کی": 11076,
      "population": 11077,
      "##п": 11078,
      "##ра": 11079,
      "##land": 11080,
      "का": 11081,
      "1938": 11082,
      "##lla": 11083,
      "than": 11084,
      "nu": 11085,
      "##ب": 11086,
      "1953": 11087,
      "##ine": 11088,
      "naam": 11089,
      "##T": 11090,
      "##س": 11091,
      "##ный": 11092,
      "300": 11093,
      "IV": 11094,
      "1949": 11095,
      "Thomas": 11096,
      "1918": 11097,
      "India": 11098,
      "τον": 11099,
      "1952": 11100,
      "All": 11101,
      "##한": 11102,
      "הוא": 11103,
      "State": 11104,
      "merupakan": 11105,
      "##ской": 11106,
      "##un": 11107,
      "##ні": 11108,
      "Oxford": 11109,
      "familie": 11110,
      "club": 11111,
      "July": 11112,
      "1947": 11113,
      "یک": 11114,
      "##zione": 11115,
      "més": 11116,
      "elle": 11117,
      "Richard": 11118,
      "##che": 11119,
      "June": 11120,
      "team": 11121,
      "Az": 11122,
      "1936": 11123,
      "unter": 11124,
      "học": 11125,
      "44": 11126,
      "##P": 11127,
      "##র": 11128,
      "##ner": 11129,
      "##ic": 11130,
      "care": 11131,
      "second": 11132,
      "##ł": 11133,
      "zen": 11134,
      "ca": 11135,
      "mga": 11136,
      "Nel": 11137,
      "として": 11138,
      "Retrieved": 11139,
      "##ok": 11140,
      "від": 11141,
      "##ig": 11142,
      "##th": 11143,
      "March": 11144,
      "##و": 11145,
      "inom": 11146,
      "##nu": 11147,
      "##ш": 11148,
      "She": 11149,
      "που": 11150,
      "には": 11151,
      "some": 11152,
      "##ada": 11153,
      "Santa": 11154,
      "there": 11155,
      "oleh": 11156,
      "##ste": 11157,
      "GeoNames": 11158,
      "##ut": 11159,
      "British": 11160,
      "pe": 11161,
      "Film": 11162,
      "ke": 11163,
      "West": 11164,
      "data": 11165,
      "##5": 11166,
      "gli": 11167,
      "area": 11168,
      "##án": 11169,
      "co": 11170,
      "38": 11171,
      "һәм": 11172,
      "1937": 11173,
      "##ció": 11174,
      "born": 11175,
      "400": 11176,
      "kao": 11177,
      "any": 11178,
      "became": 11179,
      "των": 11180,
      "##dos": 11181,
      "với": 11182,
      "##ton": 11183,
      "##ского": 11184,
      "serie": 11185,
      "एक": 11186,
      "ook": 11187,
      "છે": 11188,
      "##que": 11189,
      "vor": 11190,
      "##ку": 11191,
      "place": 11192,
      "Berlin": 11193,
      "##ные": 11194,
      "##ty": 11195,
      "soort": 11196,
      "##tes": 11197,
      "including": 11198,
      "##ে": 11199,
      "1951": 11200,
      "đầu": 11201,
      "pod": 11202,
      "##ble": 11203,
      "37": 11204,
      "##das": 11205,
      "well": 11206,
      "cm": 11207,
      "##ा": 11208,
      "##ר": 11209,
      "##gi": 11210,
      "##6": 11211,
      "October": 11212,
      "đã": 11213,
      "##ի": 11214,
      "egy": 11215,
      "##nen": 11216,
      "##ն": 11217,
      "Jahr": 11218,
      "koji": 11219,
      "General": 11220,
      "oraz": 11221,
      "through": 11222,
      "being": 11223,
      "##ní": 11224,
      "North": 11225,
      "season": 11226,
      "##nte": 11227,
      "waren": 11228,
      "година": 11229,
      "noch": 11230,
      "##ll": 11231,
      "doi": 11232,
      "##ea": 11233,
      "##res": 11234,
      "Martin": 11235,
      "##ant": 11236,
      "hadton": 11237,
      "January": 11238,
      "Park": 11239,
      "##ан": 11240,
      "eerst": 11241,
      "##ہ": 11242,
      "##ò": 11243,
      "##vo": 11244,
      "##ée": 11245,
      "##né": 11246,
      "1933": 11247,
      "Love": 11248,
      "##id": 11249,
      "hat": 11250,
      "ఉన్నాయి": 11251,
      "ko": 11252,
      "##ssa": 11253,
      "database": 11254,
      "Po": 11255,
      "Society": 11256,
      "cho": 11257,
      "##ть": 11258,
      "##E": 11259,
      "են": 11260,
      "##로": 11261,
      "στην": 11262,
      "##ck": 11263,
      "tra": 11264,
      "fost": 11265,
      "pero": 11266,
      "को": 11267,
      "##les": 11268,
      "##ning": 11269,
      "##lle": 11270,
      "1935": 11271,
      "##ado": 11272,
      "##R": 11273,
      "##B": 11274,
      "##ske": 11275,
      "42": 11276,
      "War": 11277,
      "años": 11278,
      "но": 11279,
      "##gen": 11280,
      "##I": 11281,
      "##zi": 11282,
      "1934": 11283,
      "pro": 11284,
      "سال": 11285,
      "1919": 11286,
      "##가": 11287,
      "December": 11288,
      "Em": 11289,
      "##ot": 11290,
      "##ל": 11291,
      "##ой": 11292,
      "##ist": 11293,
      "##ين": 11294,
      "64": 11295,
      "bij": 11296,
      "##nie": 11297,
      "##ista": 11298,
      "many": 11299,
      "48": 11300,
      "After": 11301,
      "sebuah": 11302,
      "39": 11303,
      "##der": 11304,
      "##7": 11305,
      "1914": 11306,
      "##ны": 11307,
      "nord": 11308,
      "pp": 11309,
      "##vi": 11310,
      "Database": 11311,
      "##に": 11312,
      "Europa": 11313,
      "మీ": 11314,
      "suo": 11315,
      "Club": 11316,
      "Music": 11317,
      "radie": 11318,
      "Grand": 11319,
      "では": 11320,
      "##ს": 11321,
      "ci": 11322,
      "де": 11323,
      "name": 11324,
      "Museum": 11325,
      "##ون": 11326,
      "against": 11327,
      "prima": 11328,
      "fait": 11329,
      "آن": 11330,
      "volt": 11331,
      "その": 11332,
      "1932": 11333,
      "Louis": 11334,
      "##nia": 11335,
      "1929": 11336,
      "will": 11337,
[...]
